00
3E
05
00
06
10
06
3E
01
0E
03
06
3F
3F
02
04
01
3C
38
04
3E
07
33
3E
02
3A
38
00
3F
05
3F
37
00
0E
02
01
03
03
02
3F
00
08
3F
03
02
01
2F
09
00
00
35
09
3B
3F
00
01
3C
3B
03
3E
01
00
02
01
39
01
02
3C
02
08
37
00
3C
34
01
03
00
05
3D
35
02
38
0A
3E
02
08
07
01
37
03
0A
3F
3F
39
37
04
37
3A
00
01
02
01
39
3F
03
38
02
00
00
3E
01
36
01
3E
3E
3F
3E
36
03
01
08
04
3D
03
01
01
3D
3F
3E
30
23
09
01
0B
02
00
05
05
01
3E
2D
03
06
04
3D
03
0B
37
00
3F
35
34
1E
2A
00
10
05
06
3A
37
