06
77
7A
0F
7E
01
00
0D
0B
7C
7C
06
0D
05
78
7B
75
74
00
01
14
7A
05
7F
74
7A
78
06
08
78
08
08
11
7A
0C
07
7A
75
75
0B
72
04
7C
75
05
17
05
70
06
6D
73
07
75
72
0F
07
7B
0E
74
00
70
09
0C
77
0E
0D
78
6C
7B
0C
73
7F
76
77
06
7C
0E
7C
00
03
7D
0B
7B
01
7B
02
7D
7D
05
7B
06
7E
72
7F
10
7E
7C
77
08
72
04
01
76
03
7C
06
02
77
7E
08
7F
7F
77
7E
7E
08
7D
73
7D
70
74
76
0E
00
7D
0C
7E
09
7D
71
07
76
08
7F
00
02
73
03
7E
01
01
03
77
08
03
14
7A
7B
0B
7C
10
7A
7B
7F
7A
08
7F
00
7E
78
77
74
7D
00
79
72
7A
09
7F
7F
78
07
77
02
7D
7D
7B
7F
7C
73
7E
73
79
7F
7A
05
03
78
03
08
0C
71
7F
79
08
08
77
08
01
0D
06
79
7F
76
7B
06
02
00
09
7D
7C
76
08
04
07
71
01
77
09
7F
06
7B
04
74
7F
0D
08
0C
02
7B
79
75
02
04
7E
00
75
7D
04
06
7E
70
12
7D
0A
05
07
07
03
78
02
03
01
01
7A
76
7B
76
07
0A
7D
74
7C
7C
00
7B
04
76
0A
7D
7A
78
7D
06
04
02
69
76
01
76
7E
08
02
79
02
0D
71
0F
7D
7B
05
00
06
74
77
02
01
03
78
7E
7E
01
77
79
7B
78
07
01
7B
07
02
0F
06
04
06
08
0B
78
7B
7C
7A
01
77
74
78
79
7A
02
02
7A
79
02
7A
6C
74
7F
02
00
7B
76
14
79
00
05
11
7C
76
00
76
05
03
09
7B
00
7F
7A
03
78
77
79
0B
03
0D
78
09
07
00
7A
08
78
7E
72
09
03
7C
7D
08
02
7B
7A
78
09
6F
06
71
02
08
78
09
01
78
7D
7E
7F
00
6C
0C
01
76
7F
7A
12
79
08
78
75
05
78
7F
05
7E
7F
00
71
01
7A
0D
09
07
7A
07
7A
0C
09
7C
03
7A
7A
01
08
09
0B
77
7F
03
05
7F
7E
00
08
01
05
6F
78
0C
70
08
05
01
00
7C
03
77
0A
0C
7E
76
7A
7C
7F
7D
7B
7E
09
02
04
03
00
04
73
79
73
7E
00
7A
7E
7C
75
7E
08
01
04
75
03
78
00
03
01
08
7B
7F
75
01
7E
08
0C
02
05
02
7A
78
7E
70
7F
7A
00
7F
03
02
08
0B
79
79
74
0A
7D
7A
00
09
07
03
74
09
74
06
6E
0D
02
7B
09
04
7E
79
04
03
01
78
04
77
09
08
75
0F
02
7F
7E
7E
02
05
0A
79
04
7E
02
7E
7B
76
79
79
01
04
05
7F
7E
76
05
02
06
6B
70
78
7E
73
7E
02
7E
74
0D
07
7C
7B
03
7F
7F
08
70
7B
02
7E
74
7E
7A
04
02
03
75
78
7C
00
7F
02
7E
79
00
7D
09
0E
04
05
74
02
00
01
00
04
79
09
09
03
0E
7A
02
00
7F
70
7B
7B
03
75
01
06
6F
7E
7E
75
04
01
7D
76
7F
7B
06
03
01
7C
6F
08
07
75
73
7F
7F
75
79
77
05
77
71
01
04
18
04
09
76
02
7D
01
7A
03
02
11
7F
7F
05
7D
7C
7B
01
00
70
7D
7B
7C
03
09
7E
78
7C
7E
7C
7D
09
03
0B
07
76
78
79
7E
00
7B
75
7C
76
01
02
09
7C
03
7D
03
0A
07
7E
01
09
05
76
7A
7E
7D
08
03
03
7A
79
09
08
76
7D
79
0A
07
77
72
74
7C
02
75
04
03
00
79
76
01
01
05
02
70
00
0D
7A
0A
74
76
0F
7D
02
0A
07
01
7D
07
0E
77
7C
08
71
12
7B
06
6A
7C
6F
6F
02
78
00
7B
74
7A
08
05
7F
01
77
77
79
77
01
76
02
05
06
7E
08
7B
08
7B
77
79
08
05
7D
7F
72
06
0C
76
7B
78
7E
79
0C
16
79
7C
06
6C
7C
07
02
7C
08
00
08
0C
7F
72
75
09
74
7D
07
7C
7D
7D
04
7D
00
74
00
0D
09
7E
7F
6D
03
7F
7B
74
7C
09
74
04
7C
72
71
05
7F
07
7E
74
10
63
76
02
7B
7E
7E
09
71
06
7A
03
04
00
74
79
04
7E
00
6E
78
11
71
0B
7C
05
0D
76
04
08
03
06
07
03
08
78
00
05
0A
73
78
06
70
76
7C
07
7B
77
7E
0E
04
09
01
75
7A
7F
77
7C
6F
01
03
02
0E
7B
7E
55
76
79
05
7A
7B
06
7C
7C
07
7E
08
0E
10
7D
7D
06
7F
00
00
7D
09
00
09
06
7E
03
03
76
75
7A
11
7A
03
0D
74
77
01
06
73
00
71
7E
02
06
78
06
04
01
04
00
7E
13
05
04
0F
08
7A
0C
7A
76
05
74
07
7D
7C
10
79
78
7B
7B
70
07
7F
7E
03
0B
78
7B
7A
0E
07
07
04
00
7C
05
02
77
71
08
05
09
7C
01
11
