01
05
05
03
3E
3F
3E
3C
3E
06
3D
04
03
3B
3C
3B
3E
3B
3F
3F
03
3F
3C
3F
3E
3A
01
3E
3A
00
3E
3F
3B
3A
3B
08
03
3F
05
00
3E
04
3D
3F
3F
03
01
3B
39
39
08
00
3E
39
02
3D
04
3F
05
00
00
04
05
3F
04
00
06
3D
02
3D
01
3B
06
01
01
03
00
05
01
02
03
3B
00
02
3A
3F
06
3E
00
03
3E
3E
05
07
05
3D
00
00
03
04
3C
05
02
3C
3E
04
3D
01
04
02
01
00
37
01
05
3A
39
07
02
3E
00
3A
01
00
01
00
03
3B
3E
05
07
3C
3D
00
3E
3C
3A
03
03
3B
3A
06
00
3D
00
04
00
02
3D
00
04
03
38
02
02
02
06
3F
02
05
06
3F
01
09
3D
01
0A
00
3B
3E
3C
06
02
02
02
3F
05
36
03
06
39
3E
3E
3E
01
3D
01
00
3B
3D
01
00
01
02
04
3D
08
07
06
02
05
3C
03
10
02
02
09
01
01
3E
3C
3E
03
01
00
01
3C
3F
03
02
03
05
3E
04
3F
02
3E
07
04
01
00
04
38
07
05
07
04
3B
3A
00
3C
3D
02
3F
3D
05
09
3E
03
3B
05
01
3D
3C
05
00
3F
02
3C
3D
3C
3F
3A
38
3D
3A
08
0D
3F
06
3F
3F
37
00
07
01
3B
06
3B
00
04
3D
02
10
3F
3F
01
07
03
02
05
06
39
3C
3A
05
06
3A
01
3D
02
02
3A
39
3D
3F
04
3B
3D
02
02
00
3D
03
05
00
3F
3E
01
3C
38
0A
03
3D
01
02
08
00
01
3D
01
3B
3F
02
02
3A
3D
03
3F
02
01
01
3D
00
3E
00
02
3D
00
00
01
02
00
3F
3D
02
3F
02
02
03
01
3F
3D
08
05
38
06
3C
01
05
01
00
01
3D
05
3C
04
3E
05
01
3B
3E
02
02
3E
3C
3A
07
00
00
3A
02
3E
39
06
01
3D
06
39
02
00
3F
3C
06
39
3F
3D
06
03
01
00
0A
05
3E
02
05
07
3E
3D
08
3F
01
04
05
00
3F
03
0A
3D
3F
3D
02
06
04
00
08
3E
03
01
3C
00
3F
3A
00
3D
3F
3A
00
01
3D
05
01
00
3C
01
3D
02
01
3F
04
39
3C
07
00
3E
3E
02
03
06
3E
3F
00
02
01
3F
02
03
05
3F
06
01
3A
01
3B
3E
3B
3F
03
3A
3F
3C
00
3E
3D
3F
3F
3E
02
04
3F
00
3D
05
3D
3F
07
08
3E
01
01
3B
07
03
3C
3E
3B
3F
01
00
3F
00
3B
3D
3D
01
05
01
38
3C
06
01
3F
01
3F
02
01
04
39
3E
01
01
3B
07
00
04
08
38
04
3A
3E
3A
3E
01
03
3F
3E
3D
02
01
00
3E
02
3A
3E
3B
00
3C
01
02
3B
3D
05
3D
3F
3D
00
3D
3D
3E
3C
38
02
3D
08
39
02
06
00
3F
03
07
3C
3D
03
3D
3D
00
01
3C
3E
00
3D
05
03
3A
03
00
00
3F
02
3D
39
3D
3F
38
3F
04
3C
3E
03
04
3C
3B
3F
01
06
01
02
3C
3E
01
02
03
02
04
3F
00
01
07
01
3D
07
03
01
3A
3D
04
01
04
3E
03
3A
00
3F
3D
07
3A
00
3E
3A
39
07
02
01
00
3F
06
07
3B
01
02
01
02
39
01
3D
04
05
3E
37
00
3F
3F
3A
39
3F
01
04
05
00
03
3F
08
02
06
00
3D
3B
04
03
3B
3E
3C
05
3C
3E
04
3B
05
04
3D
07
3E
3D
3D
00
3E
3E
3F
3B
39
01
01
3D
3C
03
3F
3B
01
3E
00
04
00
05
00
38
00
01
06
02
05
3F
04
39
00
3F
3C
3A
05
3B
01
04
04
06
3F
3F
3F
3F
00
01
03
00
04
39
3F
00
3D
3E
3C
07
01
06
3F
09
00
03
05
39
00
3D
05
3E
02
3D
05
04
00
3E
3D
3E
03
3F
3F
08
3C
3B
01
3D
01
3D
07
3B
04
03
03
05
03
3F
00
03
00
00
00
04
07
00
01
3C
08
06
00
06
00
3C
04
3D
39
3D
05
04
3B
3C
3B
00
00
00
3F
00
3E
3D
3E
00
02
03
01
05
3A
01
03
04
02
06
3D
00
3F
3D
3C
3C
3B
00
3F
3C
00
3F
01
3E
3E
3B
07
01
03
04
3B
3F
3D
02
3B
03
3E
01
3D
02
3A
3C
03
39
3E
3F
06
38
02
04
00
3E
00
08
01
03
01
02
03
06
02
07
3F
3E
3E
02
01
3F
3D
3C
3E
07
3E
03
3C
3B
35
3B
07
3C
39
3C
00
04
3E
3F
06
01
02
00
07
3C
3B
00
38
3C
02
3E
07
07
3E
39
05
02
3C
07
3E
3E
3C
3F
3B
07
04
03
02
00
03
01
3E
03
03
04
03
03
3A
00
03
03
00
04
06
3A
00
38
00
07
02
3B
3A
3F
03
00
3D
3F
02
37
3E
3D
39
01
02
01
3F
3B
01
04
3F
07
08
3F
3F
02
3C
3F
07
07
07
39
3E
3D
38
03
3C
3C
3E
3B
3F
07
3D
3F
05
05
02
01
06
03
3C
3F
3F
02
05
05
3D
3B
01
03
3A
3F
01
3D
3E
3F
01
06
3F
00
02
01
3E
06
01
04
06
3D
00
3C
3B
3F
07
3A
3C
08
3D
3E
02
05
3B
04
05
00
02
05
02
3B
00
03
3F
3E
03
01
01
02
01
04
01
3E
06
3C
3C
3F
00
05
01
38
02
04
38
3A
00
3D
3C
06
3C
3F
00
05
3D
00
0A
02
03
03
3F
05
01
3B
3F
38
3E
3E
01
04
00
05
3C
04
01
39
06
09
02
02
01
01
3C
06
3C
03
39
00
03
3F
38
3F
04
3C
07
3D
3E
3D
00
3F
00
3A
01
3C
08
3C
01
3D
04
3E
06
03
07
00
03
02
3F
03
01
3C
3B
01
3B
3B
3E
01
03
01
3A
04
3B
00
06
3C
3B
01
01
02
3F
3F
01
09
06
08
3C
01
00
3C
3A
01
02
03
3C
05
01
3D
3B
04
03
02
3E
3D
3F
03
3F
3F
04
3F
00
06
3C
01
06
3B
3E
04
3F
3E
01
3C
3E
3F
01
3D
00
39
01
3F
3C
3B
3F
3F
04
01
05
39
06
39
3F
3C
3D
08
03
03
05
3D
02
06
02
04
05
04
02
05
06
05
3D
3A
04
3C
00
04
3C
02
03
07
03
03
05
3F
02
02
03
01
3B
02
3A
08
3A
3E
3C
3E
05
38
3D
00
01
3D
00
38
07
3F
04
00
3F
07
02
02
3A
3B
02
02
3A
3B
3A
01
3A
3A
38
3D
3F
00
00
00
3E
3D
3F
03
00
3C
03
02
3A
3C
01
3E
04
04
3D
05
01
01
3D
03
3C
03
37
3F
03
05
07
3E
3F
3E
02
05
3D
06
3A
3F
3B
02
3D
00
3D
04
3B
3B
3C
3B
03
01
05
04
3B
3F
01
3D
07
3F
02
3D
02
38
01
02
02
07
36
3A
3F
07
06
05
05
03
06
06
02
3E
3F
02
02
06
02
01
03
00
3E
03
00
00
3A
00
3F
34
08
03
01
3F
08
08
3D
3E
39
06
00
04
00
04
09
35
01
3B
3D
00
3F
00
3B
06
3B
00
3A
3A
01
06
06
05
02
3F
01
39
00
01
01
00
02
3E
3C
3C
3B
3C
3E
08
3C
00
01
3C
03
3B
00
06
05
3B
3C
00
3E
37
03
3C
01
02
00
05
3B
02
08
3F
03
00
05
3A
09
3A
01
05
01
04
02
00
00
38
07
01
3C
3F
05
3C
3A
3E
02
3E
02
03
3E
3F
01
03
3F
00
38
00
00
04
00
3B
01
3E
04
3C
3E
00
01
06
03
3D
01
06
3C
3E
01
01
3D
3F
02
3C
3D
3F
03
3F
3D
07
39
3D
03
01
06
05
3C
03
06
01
06
39
3E
38
05
07
04
02
3B
3F
02
3E
07
00
07
02
06
3D
3F
06
3F
3C
02
00
3E
3D
01
3E
3F
03
06
04
00
02
39
00
03
3E
00
01
08
3A
00
04
01
04
05
02
00
07
3B
03
07
03
3F
00
00
01
3A
06
05
04
3C
3A
02
01
03
04
04
00
02
3B
03
01
0A
3C
08
3D
03
06
04
3A
08
3E
3A
3D
02
00
00
3F
3D
3D
01
3B
00
02
3D
3F
04
00
03
02
04
03
3B
3A
04
02
03
3F
01
39
01
03
05
06
00
07
3D
03
06
00
03
39
3C
3B
04
03
3E
3B
3F
3A
03
3C
08
03
03
3B
3A
3C
01
06
02
01
3F
05
04
3B
00
02
03
3F
00
3E
05
00
01
02
3C
37
03
3E
3C
3F
3E
3D
3A
03
03
01
00
3E
00
00
05
04
3D
0A
00
04
01
3B
3E
02
02
3D
3F
03
02
3D
02
3D
3C
06
3A
01
3C
3D
3D
03
00
39
01
01
3D
01
02
03
3C
00
06
02
3F
06
01
05
3C
3A
01
06
06
01
3D
00
05
01
3B
3E
3D
0A
3A
3E
38
38
3E
3D
05
07
00
3A
03
01
3A
05
3B
07
02
01
39
00
01
00
05
00
00
3B
3E
3B
00
02
3A
3C
01
3A
3E
04
3F
3B
05
07
3E
3D
3C
3E
03
3E
02
02
05
3E
02
03
3D
3F
02
05
3F
3C
03
3F
3F
02
02
00
00
00
3D
05
3E
02
00
3B
3E
3D
3B
3F
38
3D
3F
3E
02
05
05
3E
03
02
3F
3C
3F
3C
3F
3F
06
3D
04
3D
00
3D
3F
04
06
02
02
3E
3D
3F
02
06
3D
00
3C
03
02
07
3D
03
00
04
00
3C
04
01
3F
3A
3E
39
04
3B
02
01
3E
00
02
05
03
3D
02
3E
02
3A
3C
3C
3D
39
3B
00
04
3F
3E
3F
3D
03
3E
3F
01
00
3C
3C
3D
00
02
03
00
3D
00
00
02
01
3C
05
04
00
00
05
39
3B
3B
3E
03
04
3D
3F
3C
01
3C
08
39
04
02
00
01
04
3B
05
04
3F
3D
3F
3F
05
04
00
3F
03
08
39
3E
3C
3E
00
3F
04
03
07
00
3E
02
3D
05
3E
00
08
3C
3D
02
3F
3C
3E
3D
08
01
3A
03
39
3C
03
00
08
3F
02
39
06
3E
3B
00
3D
3D
3A
05
3E
3D
01
01
01
3B
00
08
3F
04
3C
3D
02
00
08
04
3D
39
3E
3B
00
00
04
01
04
01
3E
3D
39
3F
01
05
04
3E
3B
00
3F
04
3C
38
01
3B
01
3C
3F
3C
09
04
3D
00
07
04
3A
00
3E
00
01
02
00
02
3D
01
3A
05
3E
03
3C
03
3F
05
01
3C
3C
3A
01
3E
3B
00
3F
01
3B
38
01
01
38
03
04
04
03
3C
3D
3F
3D
04
3D
01
3D
05
05
01
01
3F
3D
3E
00
08
03
04
02
04
3C
3F
02
01
3A
03
3F
3C
39
3C
3C
3C
3D
3C
3D
01
3C
39
3D
00
02
03
3F
3D
01
3E
07
3A
3B
00
38
05
06
02
02
3F
3F
00
00
01
3E
06
08
3A
04
03
3F
3F
3A
01
3F
02
3E
03
3E
37
02
04
03
3E
02
00
3F
3A
3C
01
39
3F
04
3D
00
02
03
02
39
00
06
3D
3A
3C
3A
3B
3C
3E
3B
01
3F
03
3D
04
00
3D
3C
3F
3D
00
01
00
00
05
3F
3B
06
03
00
01
05
02
3A
3F
3E
3D
00
3C
02
00
3D
3F
03
02
01
07
3C
03
00
3F
04
06
3E
3B
00
04
01
3E
3A
08
3C
00
3E
3E
01
3C
00
3C
05
3E
07
03
3B
03
03
05
04
06
02
03
00
39
3A
03
3F
05
3B
3C
00
02
3D
02
3E
3D
04
04
02
07
3C
02
04
02
3E
3B
00
3F
01
03
01
38
03
01
00
04
00
01
00
01
05
38
04
38
3F
03
01
3F
08
02
03
3E
3F
00
39
01
02
3D
38
02
39
01
3B
02
03
03
3A
3C
3E
3C
39
08
02
01
3B
04
00
00
01
08
03
02
02
00
3A
02
04
02
00
3D
3F
06
3D
3E
02
3F
38
03
01
01
05
03
3E
3F
03
01
07
3E
3A
39
01
3C
03
3E
08
00
3C
3D
08
00
01
3F
02
07
01
00
3B
3C
02
3F
3F
38
3D
03
06
02
3D
39
3D
3B
04
3C
3D
3B
3F
03
06
06
03
3E
04
00
3F
02
3B
3D
3F
3B
3E
05
3E
3E
39
3F
3E
02
3E
08
04
3E
06
3F
3D
00
03
00
04
3F
3E
00
3E
3B
01
03
04
3D
03
39
00
3D
04
3C
3F
06
3F
02
3B
3E
03
08
02
3F
3F
3A
3C
3D
3C
03
05
3C
03
03
04
02
3F
3E
38
3C
04
04
3F
00
03
04
00
03
3F
3B
01
03
3E
00
02
03
04
02
08
3B
05
05
3E
3C
03
01
00
3F
00
08
00
3C
02
04
3F
00
00
02
3F
06
01
04
04
3D
02
03
39
03
01
00
3D
02
39
07
02
01
04
3F
3A
3E
3A
3F
39
3E
3F
07
3D
03
03
3A
01
01
3D
3C
09
05
02
03
3B
3B
3D
01
3A
3B
3B
3F
02
3F
3E
3F
3B
00
3A
03
3F
3F
02
3B
3C
3B
00
01
06
3E
3D
3E
07
3E
3F
02
03
3B
3C
3A
3C
03
00
3F
38
03
00
03
3A
03
04
3D
3F
3D
3D
3F
01
04
03
3C
00
3F
03
02
3F
3C
05
00
00
00
01
05
04
03
05
02
02
3E
3F
3C
3E
3E
3E
3F
04
03
00
00
02
06
05
3D
3F
01
3C
05
03
3A
04
03
3D
3D
3F
3E
03
3F
3C
06
02
3F
3A
06
03
07
3E
06
01
3C
3E
3C
02
3F
06
3D
01
3C
08
00
38
08
3D
3F
3D
3F
02
04
3D
01
3E
3C
3B
07
3B
3F
3A
3F
38
03
03
02
3E
07
01
04
07
05
3E
0A
04
39
03
01
02
3D
00
3F
04
09
00
02
3D
04
3B
01
02
3A
3F
3E
00
04
3F
3F
3F
02
05
3F
3F
02
3F
01
01
06
02
03
3A
00
03
00
3B
03
01
02
01
01
3D
3E
3E
3F
3F
01
00
3C
05
01
04
3E
09
3E
02
01
04
3F
02
3E
3B
05
02
00
00
02
01
3D
04
3A
3E
02
3D
00
01
01
3B
3A
3C
02
00
3D
3D
01
3E
01
3F
3E
05
05
01
3D
3C
39
04
01
3F
02
07
02
01
3E
07
3D
3F
3D
07
01
05
07
06
3E
3B
03
03
07
01
06
3D
03
3F
3B
05
02
01
01
02
00
3D
3D
3D
3F
06
3E
02
02
00
3E
3F
03
3B
3D
3A
00
01
01
3B
3D
06
02
01
3B
3D
3B
3B
00
04
06
03
3E
05
3B
3A
3B
04
03
04
08
3F
01
3E
04
01
01
01
3F
3A
01
02
3D
04
07
3E
03
05
3A
01
3E
39
3E
39
01
3E
3C
03
38
3D
04
3F
3D
3C
02
3E
07
00
00
3D
06
03
03
02
3A
3C
3E
03
00
01
3B
01
3F
01
03
3B
3C
3C
39
04
02
3B
01
03
3C
3A
01
08
03
3A
3D
00
03
02
3B
01
02
06
3E
00
3C
3A
04
07
3C
04
3D
3F
3E
07
3F
04
00
00
3E
3B
3F
3D
05
07
05
3B
3F
3E
06
05
3F
02
02
04
3D
08
01
3A
3E
06
00
3B
3C
3E
03
05
3A
03
3C
02
3D
3D
05
03
01
04
3F
04
00
39
02
01
3E
04
3B
3B
3E
03
01
01
01
06
3D
3F
04
05
38
04
00
3A
3D
04
3E
07
05
3B
37
3E
3A
04
3E
03
3E
3F
06
05
00
3F
3E
3F
04
3B
03
00
04
37
02
3F
00
3E
3A
3A
01
3B
08
3D
39
04
06
01
02
3E
01
00
02
3E
37
00
00
03
00
3F
3B
01
03
05
03
00
05
3C
07
3D
3C
05
3D
3E
3B
3F
02
06
04
3E
3B
3B
05
3A
01
3B
3D
3D
00
05
3E
01
08
02
03
3E
3D
3F
00
00
3E
01
00
01
3A
3D
3C
39
3E
03
04
03
38
03
3A
06
04
3E
3B
3D
04
00
02
05
02
3B
03
04
3E
04
39
01
03
04
3C
00
3A
3D
01
07
03
00
03
01
03
02
08
06
07
3E
3E
04
03
3E
01
3D
05
05
04
00
02
05
3B
3F
01
02
02
01
04
3E
00
3C
3D
01
3D
07
02
3D
03
3F
06
00
04
01
02
3D
3F
02
03
3C
03
02
06
04
03
05
05
3C
3B
06
04
3C
3E
04
3A
00
06
3D
3C
3F
04
09
3E
01
03
02
02
3D
3A
01
04
39
03
3B
3D
01
07
04
01
3F
04
39
3C
03
02
39
00
04
02
06
03
3D
02
03
01
3C
03
39
3B
3E
39
3E
03
01
03
00
3E
3E
06
3E
3B
05
01
07
08
07
03
3D
08
3C
03
06
03
3B
02
3A
00
03
03
02
08
3D
00
00
03
38
3A
04
04
00
02
02
39
01
3F
01
03
3F
02
01
01
06
3E
3E
01
07
3F
3E
39
3B
02
01
00
00
08
3D
01
03
01
3B
04
3C
00
03
04
3F
07
04
01
00
03
00
05
01
3B
02
00
3D
3D
3E
3E
39
05
04
00
00
3D
3D
04
07
39
3E
03
39
3B
3C
01
3C
01
3F
02
02
00
3A
04
02
3C
01
06
39
03
01
00
02
02
02
02
06
07
3E
06
03
3C
01
3A
02
03
3B
02
3E
03
01
3E
39
3F
04
3F
04
3B
00
00
01
02
01
03
3E
3F
3B
03
08
3E
02
01
38
00
3E
01
3F
3E
04
3F
3A
3F
3B
3B
3D
03
02
01
02
3A
01
07
3B
3D
08
00
03
01
00
04
3C
00
04
07
02
02
3C
3E
3E
3A
06
03
00
00
3D
03
07
03
00
39
01
3C
3C
01
00
00
3E
04
3E
00
02
3B
01
03
3A
04
3E
00
00
07
01
01
08
3C
38
39
00
3E
01
01
07
3F
37
02
03
02
3D
00
3C
3F
02
00
3E
39
01
3C
02
3F
03
3E
00
3E
3D
05
02
04
3B
3C
39
02
02
3B
3F
04
01
09
03
03
04
3F
3B
3E
03
00
02
3D
04
02
3F
3F
07
3A
01
08
0A
08
04
3C
03
06
08
01
00
38
3D
3A
02
06
01
3D
02
04
05
08
3E
02
05
00
3E
3F
3E
02
06
3B
04
06
02
05
01
05
03
07
03
03
00
3B
03
05
02
03
05
02
01
07
03
3E
07
06
07
3E
05
07
04
3F
06
01
3D
3D
01
3F
07
3C
07
00
04
3D
3D
02
02
01
06
07
04
3E
00
08
00
03
07
3F
07
04
3F
3B
01
00
03
3F
01
00
07
3B
05
3F
3C
07
3E
3B
00
06
03
3D
39
03
05
05
00
02
0B
03
00
05
08
04
3C
3E
01
00
05
01
06
39
04
04
00
01
03
3F
00
3C
00
05
3F
04
02
3F
03
3D
3D
39
02
3C
02
3A
01
3F
3D
3A
02
03
3B
02
06
00
03
04
3F
3D
3E
3D
3F
3D
03
02
03
3B
3C
04
05
02
01
3A
00
08
05
3C
3B
3F
00
3F
3B
02
02
05
01
00
00
02
3D
03
3E
3D
3D
00
3F
3F
02
02
01
01
02
03
3E
01
00
3E
04
01
02
01
3D
3F
04
3F
38
01
3F
3E
3C
3C
01
3E
00
04
3E
3F
3C
01
3F
06
3B
3F
3B
05
04
3E
3F
03
01
3B
00
03
03
02
03
01
01
04
39
05
03
3F
3F
3A
3B
00
01
03
04
3B
3C
05
3C
05
3D
02
02
06
3B
3C
02
01
05
05
37
3C
3C
3D
01
02
03
03
3E
05
3C
39
01
37
3A
3A
3C
3D
00
01
3F
01
3A
3C
3F
02
07
01
00
3E
02
08
01
3B
3A
02
07
01
00
01
03
05
01
3F
07
3D
03
03
3B
08
3E
3C
3E
3F
00
3E
02
05
00
00
3C
03
02
02
03
02
3F
3F
00
03
3A
03
00
3B
3A
3C
00
00
3F
02
3F
03
3D
05
00
3A
3E
39
09
03
02
03
01
3D
04
3F
02
05
03
04
01
3A
3B
00
04
04
39
01
3D
02
01
02
3C
02
3F
3F
3F
01
3F
3F
05
06
37
3A
03
3F
01
3D
04
3F
00
05
3A
3E
3D
3D
3E
03
3C
01
3E
04
00
02
02
04
3D
3E
3C
05
3C
07
3E
00
04
04
03
38
3B
3F
3A
00
01
3E
3D
04
05
3A
00
3F
38
00
03
02
03
39
03
3C
3F
07
03
3C
00
01
01
3F
03
3B
3B
00
02
3A
3D
03
3E
3B
3F
02
01
03
39
01
3E
04
02
3A
3C
00
04
3D
02
3D
04
3C
06
3A
39
3D
04
03
08
00
01
3F
3C
02
3D
05
3E
02
05
01
3C
00
01
03
04
03
38
02
3E
3F
06
03
3A
3B
38
3E
01
3F
3B
03
02
03
00
00
3A
04
3F
3B
05
03
01
01
3E
39
01
00
00
04
01
3F
3E
02
00
00
04
3B
02
03
00
00
3D
02
07
3B
02
3D
04
3D
05
3D
01
03
3F
06
3E
01
03
06
07
03
3E
03
08
3C
05
06
01
03
01
3A
3F
3E
3B
3A
3F
00
01
3F
07
3F
03
00
04
02
02
05
03
05
3F
3E
08
3C
05
3F
3F
3D
3E
3F
00
01
06
00
02
05
07
3D
3E
07
3C
3F
3A
3E
07
3F
3A
02
04
00
05
07
3D
03
3F
00
3F
05
3D
03
3E
03
3A
0D
05
3C
05
08
06
01
03
00
3F
3F
04
04
3E
00
3D
02
3C
07
3B
0A
01
05
3B
05
3A
03
02
3E
06
08
3D
03
00
03
07
03
3E
3F
06
03
03
3E
01
3B
02
01
3D
01
07
08
07
06
01
3D
05
01
3E
05
38
06
3F
01
39
3E
04
3C
3A
07
00
38
05
37
02
3E
02
04
3E
3A
00
03
3F
3E
3F
3C
3D
01
3F
00
05
02
04
3C
03
06
3C
01
3B
05
09
03
03
3F
3F
3C
05
3E
3A
3D
03
3D
3C
03
00
3E
07
07
00
02
06
01
39
3C
00
02
01
06
3A
01
37
38
02
39
01
07
3E
38
01
02
3C
00
00
05
04
3C
3E
00
3F
08
3F
3C
3F
06
00
3B
07
02
38
00
00
02
3F
06
03
03
3D
04
07
3D
3B
05
3A
3F
38
01
3C
01
00
00
3E
3D
06
02
03
02
02
3E
00
3F
01
03
01
0A
08
02
38
00
07
3C
3D
3E
02
05
3F
3C
06
3A
3F
03
00
04
3F
02
04
00
01
02
01
03
02
3F
39
01
03
03
39
08
3D
38
09
3E
01
3D
00
04
08
3D
05
06
39
10
3A
3C
03
03
05
38
01
01
3F
07
01
01
3D
3E
05
0C
3B
01
3F
04
3E
3B
3D
02
01
3D
39
04
3A
3F
00
04
3E
06
09
05
06
03
01
3C
02
04
02
02
01
03
01
08
01
03
37
08
06
02
04
01
03
02
3C
39
3E
01
3F
04
3B
3B
3D
3E
04
3B
02
3C
3C
00
04
01
06
02
03
06
3B
06
3E
02
08
01
07
00
3F
3D
3D
3B
00
00
02
3A
01
3E
3B
02
03
02
3F
01
3D
03
00
3D
00
03
3E
01
3F
00
3C
02
05
3A
05
05
04
3F
3E
06
03
3D
00
03
01
00
06
00
3C
01
02
01
04
3E
01
04
3C
3C
06
07
3E
03
02
00
02
00
00
3C
37
03
3D
3D
02
07
04
3F
08
02
03
3F
3A
3C
03
3C
05
3F
06
01
03
01
05
01
3F
03
39
38
3E
3F
01
3B
08
3D
3E
3B
00
01
03
01
3A
00
3F
39
03
3C
3E
03
3A
03
07
01
05
3C
03
00
3B
02
38
3F
00
3F
3A
03
3B
3E
01
3E
01
00
39
06
01
03
3F
02
3D
01
06
00
3B
01
3E
3C
01
00
02
00
3B
3D
3E
01
02
3E
3F
01
06
09
3F
06
3C
3E
00
04
3E
3B
00
01
05
04
3E
05
3D
3F
3E
00
3F
3B
3D
3D
3D
39
00
3E
3D
3E
01
05
3B
3E
02
3C
3C
3E
3F
3E
3D
03
06
00
01
02
06
02
04
01
03
3B
04
04
3E
05
03
01
3C
05
00
05
3F
3B
38
3C
3E
3E
03
3F
00
3D
38
05
3E
38
3C
3F
3E
3F
3D
3A
3C
3E
03
03
04
3E
05
03
02
3D
38
05
38
03
3D
01
3F
3B
04
04
3C
00
00
3C
3F
3C
3E
03
04
3E
03
02
38
3E
3C
3C
08
01
3D
3F
3E
3C
00
03
00
3A
08
01
00
3F
00
05
3D
3F
03
02
04
3E
00
02
3E
04
3F
3C
04
3B
00
02
3B
03
03
3D
04
03
03
3D
04
00
04
3D
01
00
02
3D
3F
00
3F
3E
3A
05
3B
3B
00
3F
02
07
3D
04
00
06
01
09
00
05
04
06
3C
3E
04
00
02
02
03
03
3F
3E
06
04
04
3A
05
03
05
04
05
3E
03
00
01
01
3F
04
04
01
3D
3F
3F
06
3C
3D
3E
05
00
00
01
3B
00
00
03
37
3F
3F
02
3C
3A
00
3D
01
3F
03
3C
3F
00
3F
3E
3E
3E
3D
06
3C
01
3C
3C
02
06
02
05
06
3F
05
02
05
01
3B
3E
00
00
3D
01
3E
3F
05
02
3E
3A
03
05
08
03
02
00
01
3F
3A
3A
05
05
3C
03
3F
3D
3F
03
05
01
06
00
3B
03
3F
00
3F
03
3F
3F
06
3D
3F
06
02
3A
04
3B
03
3D
01
3D
3F
3B
3E
05
3F
39
04
03
01
3D
00
3F
3F
3E
3E
3A
01
3E
3B
00
3F
3E
00
03
3F
06
04
3A
06
39
02
3F
3C
3E
06
3C
01
02
03
3D
00
3D
03
3C
3B
3A
3F
3C
06
02
3D
00
07
02
05
00
3E
00
3D
00
3E
3C
03
3D
3D
03
3A
3F
03
3E
03
3E
3F
3A
04
3A
3A
3E
01
05
3C
03
3E
3F
3D
3E
3E
3F
3E
3E
38
08
01
07
3F
01
3D
3F
3D
01
3A
04
3E
3D
02
3C
39
05
3B
01
00
04
03
37
06
04
01
03
3F
3E
03
06
04
04
00
05
3C
05
01
09
3F
06
3A
05
3E
3C
3E
02
3E
3E
02
04
3C
05
00
3F
3F
3E
3F
3F
03
03
05
3F
01
03
3F
36
00
02
03
3B
01
08
00
3D
05
04
04
03
02
3D
3F
38
02
03
07
01
03
3D
02
3E
07
3E
01
01
07
3A
38
02
37
05
3E
01
04
3C
3E
03
04
3E
35
02
3D
01
3B
3E
02
37
3A
39
03
03
04
3F
02
3E
05
3F
3C
3D
00
03
02
3F
00
3F
3C
07
03
05
00
07
05
02
03
05
3F
04
03
3B
3F
04
3D
04
3D
05
3B
3C
00
3D
3C
03
3F
38
03
3E
06
00
08
02
04
3B
01
3A
03
39
01
3F
04
01
3A
08
02
3F
3C
3D
3E
05
05
04
04
3F
3D
03
3D
02
3E
3C
39
3D
06
3D
07
00
3E
3F
38
01
04
39
3F
04
00
3F
39
3D
01
03
3C
3B
02
3D
02
3D
3C
03
3D
39
3C
3C
3A
04
3D
3C
01
3D
03
08
3E
3E
08
3E
00
03
3B
3B
00
00
02
07
3C
3C
3F
3A
04
02
3F
01
3F
08
00
06
04
00
3F
02
3F
08
3F
03
3B
05
3A
3C
3D
08
3F
04
00
00
00
03
3D
3B
3F
00
3F
3D
3F
3F
03
01
00
3F
3E
3A
3E
03
3F
3F
02
3E
3E
3B
00
00
3E
3C
01
04
3D
3A
3D
00
3B
39
02
3D
38
00
00
3E
07
04
08
00
06
39
01
0E
05
01
3D
05
01
04
08
38
02
3D
00
06
00
00
3B
3A
3C
3F
03
3D
07
06
03
02
3F
3A
38
01
07
00
04
02
3E
01
00
3B
37
00
03
3F
3C
3F
3E
3B
03
3E
0A
08
02
00
04
00
3E
3E
04
01
08
03
02
01
01
3B
03
3E
03
06
3A
03
3C
06
07
06
01
3A
3C
03
3F
06
3B
3B
05
09
00
3B
01
3F
3A
3A
3E
3F
05
3F
00
05
01
09
04
03
03
3C
04
04
3C
06
03
06
05
3B
05
03
00
04
04
37
01
00
36
00
02
3A
03
02
39
00
39
3F
08
3E
39
07
03
03
01
00
3F
3F
01
39
3C
02
07
3E
3F
07
01
02
08
04
3D
3E
3F
00
3B
3C
3E
04
09
01
01
3E
3E
3E
01
3C
3A
3E
3D
3F
3A
3B
3C
3E
04
3B
02
3C
07
03
03
3F
3F
3E
03
3D
07
3A
02
37
07
3F
04
3D
3A
00
3D
3D
38
04
00
04
07
00
06
05
09
00
3F
03
3B
3F
01
05
06
3F
3A
04
3D
3E
00
03
3C
3B
3C
02
3C
04
06
3F
02
3A
07
3E
3D
07
3A
3A
3F
38
03
02
3A
3E
00
02
01
01
06
03
06
3C
03
01
02
3C
03
03
3C
3D
06
05
3D
3F
01
06
01
02
37
01
39
3C
3F
01
01
3F
3C
02
05
00
05
03
02
3D
00
00
3D
03
3C
39
3C
08
3E
3D
01
3E
3F
3D
3D
05
01
01
00
38
01
03
3D
38
05
03
01
07
3E
3D
3C
3E
3E
3C
3F
3C
3F
03
3F
3D
02
3F
3E
3F
3F
00
3A
3F
3C
02
38
04
3E
04
3B
39
38
3E
05
08
07
00
02
00
00
01
04
02
3E
08
07
07
3F
3D
3B
00
02
3F
04
3C
03
03
03
3C
3B
02
06
01
3F
01
04
04
3E
03
00
01
04
07
3C
02
3E
08
3B
39
01
3E
02
3D
3F
3B
3E
3D
00
3F
3D
3C
3F
00
01
3F
39
00
3B
00
05
01
04
04
00
05
00
03
01
38
05
3F
3B
01
02
03
3D
03
02
02
3B
02
06
3E
06
3D
03
3F
3E
01
07
03
3D
3A
02
06
3F
01
3E
08
02
3C
00
3E
3E
07
37
04
01
01
3D
00
01
3A
3E
01
08
3F
3B
3B
00
00
3F
02
04
06
02
3E
3D
00
02
03
3C
3D
01
3C
3C
39
3E
01
02
02
3E
3C
04
3D
3F
00
3E
03
3E
06
3E
38
02
06
3C
07
3E
0A
04
3E
07
02
3E
04
3C
07
3B
3C
00
05
01
01
04
01
01
05
01
02
3C
39
00
02
3E
3F
3F
00
02
3D
3B
02
3E
3D
3D
02
3B
3E
05
3F
02
3F
3D
05
02
05
3E
08
06
3E
3C
3F
01
38
05
02
02
3F
3E
03
00
3A
04
00
3F
3F
3C
3F
05
04
00
3D
07
39
3B
03
01
3F
02
3D
3B
3D
05
3F
00
03
00
00
3E
3F
01
02
3D
05
01
06
02
00
3F
06
07
00
3C
3F
00
3D
37
3F
01
04
3A
39
00
00
05
04
01
3E
02
04
3F
3D
3C
3D
39
03
3C
39
03
02
02
03
00
3E
3B
3B
3C
39
33
02
3D
3F
3C
00
3F
3D
3E
06
01
04
00
03
07
08
3E
3F
3B
07
04
3E
3A
39
3D
3E
04
04
3F
00
02
05
04
3E
3C
04
00
01
3E
03
3D
08
00
3D
01
04
3B
3F
01
3C
3A
02
05
02
3D
05
3B
08
02
06
3E
02
3E
05
02
3E
3D
3C
3A
3B
08
3D
03
3C
03
02
3C
3C
05
05
01
3F
00
3F
39
3D
00
3C
39
3D
00
00
07
00
3B
3B
02
02
00
3C
00
00
01
3A
3A
00
00
3C
04
3C
00
3D
3E
3C
03
3C
3E
3F
3E
06
3F
37
02
3A
05
00
3D
03
38
3B
3B
3F
02
00
3C
02
08
02
3D
01
06
04
03
03
3F
3C
01
03
3C
3E
38
3E
3D
3F
00
08
01
05
3D
04
04
3F
04
00
39
3F
3C
01
01
3B
3E
3E
02
06
01
01
3B
04
04
3D
3B
01
00
3E
3C
3D
00
3F
3F
3D
04
01
3D
00
3D
3E
03
04
3C
05
05
04
39
3E
3F
00
3F
00
01
02
04
3D
01
3D
3F
3F
3A
3E
3B
3F
02
02
03
02
3C
03
08
3E
02
3F
3F
00
3E
3C
3C
04
00
3D
01
3B
03
3E
02
00
00
3E
00
01
3A
3F
3B
00
03
00
3F
04
03
3A
3F
01
01
3A
3E
00
3E
01
38
00
01
00
01
00
00
3A
02
01
02
00
3B
3A
05
03
3B
05
04
06
3A
04
38
00
01
3E
06
05
02
3E
3D
3C
3E
3F
00
03
05
06
04
39
3E
3A
3F
3E
3B
06
00
00
03
3D
3E
02
00
08
06
3D
02
02
3F
39
07
3C
38
00
3C
07
04
3D
03
3E
3E
3D
3C
05
3A
3D
3F
39
3C
3A
01
01
3B
04
3C
02
3E
3E
02
02
3D
02
3B
3F
05
03
3E
00
3A
05
06
3D
07
01
3E
39
3E
01
03
00
3F
02
00
02
3E
3E
08
01
03
02
02
02
3E
3A
3C
04
05
3F
3C
04
00
06
3C
00
0B
3A
02
03
39
39
3E
3F
00
00
3F
06
3F
00
3E
3A
3C
3F
07
08
07
00
3E
03
01
07
07
01
3C
05
3A
06
08
00
01
00
01
3D
3F
3C
03
00
3C
3F
3D
05
04
08
3C
02
01
3C
00
08
3E
3E
00
3F
3E
03
3F
01
02
3E
06
01
38
38
3F
03
04
02
03
06
39
05
3B
00
06
01
0A
38
05
01
01
00
3D
01
3D
3A
01
3A
05
08
03
03
01
07
3A
3F
00
05
39
02
03
02
02
00
3D
00
03
3E
04
08
05
02
04
3E
3F
3D
3D
02
02
04
02
04
05
01
3E
03
3E
07
07
03
3C
05
01
3A
3D
3A
01
03
08
04
04
02
3F
02
01
05
05
3E
3F
3B
3F
02
04
01
39
04
02
04
3E
00
02
00
00
3E
03
03
03
3F
04
05
07
3F
37
02
00
03
3D
3E
3F
00
3E
3D
3D
3B
3D
3F
3E
3B
3A
01
00
01
00
3D
3F
3A
3F
3E
02
3B
05
3A
06
01
3E
3B
06
07
02
04
02
01
07
03
3D
04
02
06
02
00
02
03
3D
3E
01
02
3F
02
00
02
03
38
05
3F
3D
3B
02
08
06
05
3E
3F
3E
3C
37
04
00
00
3D
01
3B
08
00
3D
09
3B
3C
01
00
00
3F
3F
3B
38
01
02
01
01
3F
02
3E
01
3B
04
01
00
3A
03
00
01
06
02
02
3E
3F
06
3E
3C
05
3F
3C
03
39
08
3C
03
3A
00
3B
3C
00
02
3E
3F
04
3F
3C
3D
36
3F
04
3F
03
3B
01
00
00
02
3B
3A
00
3C
08
3D
07
04
3E
08
03
00
3F
04
3D
02
3E
01
01
03
3C
3C
3F
3D
38
3A
01
3D
3F
38
3C
03
01
01
3C
02
00
39
3D
05
02
01
04
3D
39
00
01
39
3B
07
01
3E
3E
3F
38
3F
05
01
05
01
02
3A
3B
04
03
00
01
01
3B
01
00
00
3C
07
3A
3F
39
3E
02
01
02
3E
01
05
03
03
3A
01
08
01
3F
3B
3F
03
02
03
3A
39
02
09
3B
3F
3D
06
03
3B
3E
04
04
00
05
04
05
38
03
06
02
3F
01
06
3E
3F
3E
3B
01
00
3E
3E
00
00
3F
02
03
39
04
3E
01
3F
3F
03
01
3D
05
01
3A
3F
05
05
07
3A
04
3D
02
00
3D
04
3F
3E
0A
07
03
01
3F
03
3D
3F
3E
3F
3F
02
00
02
3D
3D
3D
01
04
00
01
02
00
01
04
04
3F
3F
3F
00
3C
00
3B
3B
3C
3F
3A
39
04
04
38
3A
01
3E
3A
03
00
3D
04
00
3C
3F
3B
00
39
3D
3D
3D
01
06
05
02
08
3F
3D
3F
00
02
3B
3D
3E
02
05
03
07
3D
02
3D
3B
3B
3C
3E
02
3F
01
36
01
3E
3C
01
04
00
3C
00
3F
3C
3F
3F
3F
01
3B
3D
03
3A
01
00
05
01
3F
3E
3E
01
3F
07
39
04
02
3F
01
00
06
00
3F
04
3E
3D
02
04
05
3D
3E
3F
03
3B
06
0A
3A
05
02
06
02
06
3E
07
02
3E
04
3A
03
39
3D
37
07
01
07
3C
01
03
02
01
02
3F
05
00
3B
0A
3E
3E
04
05
03
02
3E
3D
03
01
01
07
3C
02
3F
3E
03
39
3F
3D
07
02
3E
03
07
07
03
02
3E
02
3E
05
3E
05
04
3F
04
3F
01
39
07
3F
3E
03
08
04
06
3A
3A
01
3A
3C
3C
3A
01
3F
38
3B
07
3E
05
3B
3D
00
00
3C
3E
05
00
02
04
00
3E
3E
3A
03
3E
05
01
3D
3F
05
3F
02
0B
3C
01
01
02
01
3D
02
3E
3F
01
3F
3A
3F
39
02
3B
3F
39
3B
06
3E
3F
3C
3D
00
03
3D
03
02
01
3A
00
3F
3F
06
06
3C
05
3E
02
3A
07
3F
05
3D
3F
02
01
04
07
03
3B
00
01
38
3C
02
06
07
06
00
02
03
02
3B
00
05
06
03
3F
3D
03
3E
01
06
01
3C
3C
00
00
00
01
3D
00
04
3F
02
3B
38
04
05
3E
06
00
3E
01
39
05
3D
3F
3F
05
37
00
01
08
01
3E
05
01
05
02
3A
00
06
3A
02
38
03
3A
0D
07
04
01
3A
3B
06
01
00
3E
3F
3D
03
04
3C
08
04
06
08
3F
02
02
00
00
3A
3D
3E
06
01
04
3F
3B
02
39
3E
3C
06
03
02
06
03
04
02
3F
38
05
00
00
00
03
06
3D
05
03
07
00
3C
04
3D
03
03
3C
00
39
04
01
00
3D
03
01
00
3F
3C
04
04
01
38
00
03
3A
3F
03
03
02
03
3F
01
03
08
02
00
3E
3D
04
00
3A
3C
04
00
01
3F
00
01
02
3F
3F
3A
3D
04
3F
00
3F
04
3E
01
03
3B
3B
04
3F
3F
00
01
03
39
3A
03
3F
01
01
3B
03
02
07
3E
3B
3E
01
38
00
3B
3E
02
39
3F
3E
3D
39
01
01
3A
3B
05
02
02
3C
07
02
04
3E
3B
03
3C
04
03
03
3E
04
00
03
00
00
00
01
00
3F
03
00
03
01
3E
04
3C
08
3A
01
04
3E
07
06
02
01
04
3D
01
3D
3E
04
3B
3C
00
3E
00
3E
05
00
00
05
3B
07
00
02
00
01
08
00
3F
04
07
00
03
3F
03
07
3F
3C
08
06
3D
03
02
3A
37
00
00
02
3F
37
02
3F
00
04
08
00
02
03
05
3C
3F
03
00
03
3F
02
3E
04
07
01
3F
02
00
3D
02
00
3F
03
04
03
01
04
3C
3C
3E
3C
00
07
3E
38
00
01
3F
04
02
00
03
00
04
06
07
05
0A
3C
06
3D
04
39
3C
3F
3D
3E
03
38
00
04
04
3E
00
3C
3F
03
3D
04
3E
3E
3E
3E
3E
03
00
3E
06
03
06
3E
3F
3E
00
04
3B
02
03
3D
3A
39
3E
00
03
3F
03
00
3D
3B
02
3D
04
3F
00
01
3D
3D
3A
08
04
02
3B
00
3A
3F
06
3F
3D
38
3F
05
3F
06
3A
38
3F
01
01
04
3E
02
02
3C
00
00
3D
00
3D
3E
3A
00
3A
07
3D
3D
3C
05
07
39
05
3D
06
02
3A
3E
04
03
05
39
00
01
3D
3D
00
06
05
38
3C
3E
3B
01
05
05
3D
3F
3D
3E
03
02
05
07
3D
3E
06
02
38
07
3B
05
03
07
07
3C
3D
01
3E
3A
3F
01
06
04
3A
37
02
3D
00
07
08
05
05
3C
3A
3C
02
03
01
05
05
3C
04
01
37
3D
02
00
3C
00
3C
3F
06
3F
07
06
01
35
05
3F
3B
3C
3E
05
00
3F
09
03
01
06
05
3D
39
03
02
03
3D
05
01
01
3F
02
3B
06
04
01
00
04
02
3F
00
38
3B
06
07
03
03
00
02
00
3D
01
04
3E
38
3F
3C
02
3C
02
02
3C
39
3D
3F
06
38
39
3C
00
03
03
39
07
02
3E
00
3D
3E
05
02
39
03
3C
00
04
3D
3C
3E
3A
3E
3E
01
3C
00
3B
01
3B
01
05
05
02
3A
00
00
05
02
3D
01
01
38
01
02
3D
38
3D
01
3A
3F
04
3E
05
3E
02
3E
07
03
03
3F
03
01
06
3F
04
3E
3E
3E
00
3F
3C
3E
00
3F
01
3A
04
04
03
3C
3A
3F
02
03
06
3D
3B
3D
02
05
03
3C
02
00
04
06
3E
04
01
39
3F
3D
00
3F
01
38
00
38
04
3C
05
3F
3B
05
02
05
38
03
3E
03
00
3D
3C
3D
3F
3C
00
05
00
03
3C
00
04
3A
3C
02
01
00
3E
00
06
01
3A
3C
03
3F
01
3F
03
02
3F
3E
00
3F
01
02
3E
3C
3D
05
3B
00
3B
3C
03
01
39
3C
3B
05
3F
3F
3F
3A
3F
00
06
3F
08
01
01
39
3F
3B
3E
04
01
3C
02
04
07
3D
03
03
3E
38
00
00
3D
02
3C
3D
03
3F
02
03
38
02
01
3D
04
08
3B
04
3C
3F
3D
05
00
02
3D
03
08
3F
3B
3D
3D
3C
3A
3D
05
3E
03
3F
00
02
04
01
3D
02
3D
3C
3D
3D
04
00
3E
00
07
38
01
3D
3D
3B
01
02
3F
3D
3D
3A
02
39
01
3D
06
03
3B
3D
3E
38
00
3C
02
3E
3A
3D
04
3E
3D
00
03
00
04
03
3F
05
3F
39
39
05
00
02
06
3F
3B
03
3D
3A
05
04
01
02
3D
3F
01
3C
02
01
3F
04
01
3E
3D
02
3B
3E
05
3E
3A
3E
00
01
3F
05
01
3E
3B
3F
3D
3B
02
02
03
05
3F
3E
03
06
3E
3F
3D
3F
01
3E
3C
3D
01
04
3E
01
3E
00
3D
06
3F
3B
04
3B
02
3A
00
08
3F
03
06
05
03
3F
3E
00
3D
01
00
3A
01
04
04
3D
38
06
3B
05
02
06
3E
3A
03
05
39
03
3F
05
3A
00
3A
3E
3A
3F
3B
01
06
08
04
01
3B
02
3F
03
3F
3E
3F
3C
07
39
01
08
06
3E
03
07
01
06
08
3F
07
02
3B
3F
3A
00
3C
3F
00
3C
3E
03
03
38
02
3E
05
02
02
01
06
07
00
00
02
3E
3B
3C
3D
3E
3B
3C
04
04
04
3C
39
02
01
01
02
3A
02
3C
3E
07
01
0A
38
06
3C
02
06
01
02
05
3E
02
35
00
06
3C
00
3E
05
01
3B
04
3A
3E
03
08
37
01
02
00
04
03
3F
03
06
39
00
01
00
3D
02
05
08
3D
02
00
3F
3B
06
3E
04
01
00
3F
03
04
3F
37
3A
06
00
04
01
03
06
07
3E
39
3B
01
3B
3A
03
3F
02
39
03
3D
3B
38
3F
3E
05
06
01
3F
3F
00
3F
01
3F
03
3D
3D
3F
3B
3D
3A
3E
00
3E
3F
3B
07
03
3E
07
3E
3F
3D
00
01
02
02
05
05
03
01
3A
3D
03
00
01
3D
3E
3F
3D
00
02
38
05
03
01
36
02
05
08
3E
04
3D
3C
3D
06
05
02
2E
00
3C
00
01
38
00
3C
3E
38
04
05
3D
3C
3F
01
3D
02
3B
3E
3F
04
00
01
01
01
03
3C
3E
01
3E
3A
3F
03
03
3F
01
05
08
3B
09
3D
02
01
09
01
02
02
00
3B
3C
06
3F
05
05
3C
3E
07
3D
01
05
06
07
3E
3C
03
3A
39
01
05
01
3D
06
3C
3A
06
02
3E
01
3F
0C
06
02
03
3F
3F
00
3D
3F
03
3F
02
03
01
3B
07
3F
08
07
01
03
06
3E
03
3D
3F
38
37
04
02
00
07
39
04
03
3B
00
02
0C
3F
3E
06
05
3A
02
3D
00
3F
3A
01
04
02
08
39
04
04
3B
02
02
06
00
05
3B
00
3F
02
05
3F
3B
00
3F
3F
3D
3F
02
3F
3B
38
01
03
02
3F
01
07
3D
02
02
05
3F
02
3A
3E
3D
3F
3D
3C
3C
01
06
05
02
02
3E
3F
00
3C
3E
3A
00
05
3E
3C
3B
3E
03
05
38
3D
04
3C
05
04
3E
3F
06
04
04
04
3D
00
3F
3F
3C
04
04
04
3E
3E
02
01
3E
02
02
05
03
01
07
06
3E
03
01
3F
03
00
02
3C
00
3D
3B
00
3F
00
05
02
02
3C
3F
02
01
00
3D
3F
3A
00
38
3D
01
3D
03
05
01
3F
06
00
01
00
3D
00
3F
05
03
09
3D
39
39
3F
01
39
00
3D
37
3A
06
03
00
3F
3F
08
03
02
3F
3C
07
3E
07
3C
37
08
04
3C
02
3F
3E
3E
04
3D
02
05
01
08
01
3A
3A
03
00
03
07
03
07
01
06
3C
06
3E
3B
05
3E
3D
01
03
3C
3C
00
3C
03
08
3C
3E
05
3D
03
03
3D
05
03
00
01
3F
3A
3C
01
03
3D
3E
3E
3C
3D
03
3D
3E
03
01
06
01
3F
02
3D
07
03
01
3B
04
3F
00
3A
03
02
00
00
03
3F
3E
3B
3F
02
06
3B
3C
05
3F
02
01
39
38
00
3E
3E
3A
06
02
07
03
3B
3C
02
07
03
02
03
3E
01
3F
3A
3E
3F
3D
3F
06
02
00
03
38
3B
03
39
3F
3C
37
08
39
3E
3B
3E
3F
3E
00
05
3F
01
3B
02
3F
3E
3F
01
3D
07
3F
03
3D
3F
08
02
3B
3C
3E
01
01
3E
3A
05
3A
3F
00
00
00
04
39
07
39
01
01
05
39
3C
3C
08
3A
39
00
01
3A
03
03
3D
03
02
38
3F
02
04
05
00
3A
00
00
3E
03
04
00
03
3F
3D
04
05
05
00
3E
3E
04
3F
02
3C
39
3A
3B
3F
3C
08
08
05
03
01
3D
3F
06
03
04
3A
38
04
02
3D
06
3A
02
01
04
03
04
3F
01
3D
00
3C
3D
3E
3F
3E
3F
02
38
3D
3E
05
08
3C
02
01
3F
02
03
3A
3A
00
3F
03
3A
05
3B
04
3D
02
01
3D
3F
06
3F
00
01
02
3D
3A
01
00
3E
05
3F
3A
3E
02
01
3F
3E
04
00
01
03
3B
3F
01
01
03
03
00
3D
02
02
00
3E
02
3F
3F
02
00
3F
3D
39
04
3B
3F
03
07
3F
3D
00
08
3F
3A
00
3E
3F
05
38
02
3A
05
03
02
3D
3C
00
00
3E
02
3C
00
01
01
3C
04
04
01
00
00
03
04
3D
3D
3C
03
3D
3D
06
3A
01
01
05
01
3D
3C
3D
01
06
3D
05
04
03
01
03
3B
3C
39
04
01
39
02
03
08
3D
02
3D
3D
03
3F
3F
03
04
3A
00
02
03
00
02
00
04
3E
04
3E
01
39
02
3E
3C
3A
02
01
38
04
3E
01
3D
3F
00
3A
3C
06
02
3F
01
3B
02
3E
02
3D
00
39
3F
3E
05
39
03
03
3E
3F
05
03
05
3E
05
3F
04
3E
00
05
3B
39
00
02
05
01
3B
01
3E
00
05
3F
02
02
01
01
3C
05
06
01
3F
04
02
38
06
3C
03
3A
3E
02
38
01
3D
3E
01
02
02
3F
00
05
3C
3B
3F
00
07
3D
03
3A
08
01
01
01
3C
06
3B
02
04
04
3A
00
04
3B
01
06
02
07
07
3E
3A
3C
3C
3E
02
3D
00
3A
03
3D
04
01
07
38
3F
01
04
3C
3C
01
06
3E
3E
04
01
06
3A
3B
3F
01
3C
3D
3A
04
00
3E
06
3E
03
00
3E
3D
04
00
3F
3B
3A
3F
3F
04
3B
01
01
01
3D
01
3F
02
02
3F
39
39
3F
03
3A
05
01
03
06
03
00
05
00
03
01
01
3B
3A
3C
3D
01
3C
3C
02
03
02
39
3C
04
03
3C
00
3C
02
03
07
01
01
3E
3F
04
3D
3F
07
3D
3D
08
02
3C
3F
38
03
03
3D
3D
3E
3D
3D
3F
39
3C
3D
04
3B
03
02
05
3C
04
3D
3E
3B
03
3A
3C
00
00
03
01
01
03
03
01
3A
02
07
00
04
3C
04
3D
04
03
02
3A
01
3C
3B
3A
3E
04
04
3D
02
05
3A
3B
05
01
08
3E
3E
3C
05
3F
3E
3F
3F
3F
3C
3C
3E
04
3C
02
04
3E
03
00
3D
3D
00
3A
05
3C
3F
05
3E
3A
04
01
09
03
03
06
07
38
39
08
01
07
3B
00
3D
00
00
3A
3D
3C
39
01
3D
09
05
05
3E
01
3E
37
03
02
3E
04
3F
00
3C
07
03
02
3F
01
04
00
3C
3F
3D
07
3E
3D
09
3C
3F
03
3E
3B
03
00
08
02
05
3A
3D
01
06
3C
05
03
03
3E
01
3D
03
03
04
3B
03
05
3E
08
3E
04
05
04
3F
3D
05
05
07
3D
01
3D
3F
04
3F
3C
03
01
01
01
3E
39
05
05
3F
01
06
01
3A
07
01
07
3E
02
3A
02
3F
3F
3E
03
3D
3B
3E
01
04
3E
38
07
3F
3F
3E
04
02
3B
00
06
02
01
03
3E
3B
3F
3E
07
3C
3C
02
3D
00
01
39
06
3C
00
04
05
06
39
07
01
01
05
01
01
3A
3D
3A
3F
3D
01
03
03
3E
02
3D
3C
05
3D
3D
3D
04
3E
00
3F
00
3E
3F
3B
03
3F
00
02
02
07
3F
3B
03
3A
3C
39
07
00
3A
3B
3C
00
3C
02
39
3E
3B
07
03
3A
3E
3F
3F
03
3F
01
3C
02
03
3B
00
38
3D
39
38
04
00
02
01
01
04
3E
00
3E
3B
04
3B
03
3F
00
39
3D
06
39
3D
07
01
3D
3D
02
04
02
01
04
3F
3F
3E
3D
3E
38
02
3F
3E
07
04
3B
39
01
3E
3C
03
3E
02
39
39
06
3D
3C
00
3B
02
3F
02
3F
3C
02
3B
3F
3E
3B
06
01
3A
3B
01
3C
00
3B
3C
03
3F
08
00
04
3C
3E
05
01
04
00
3E
01
07
02
38
07
05
02
3B
3B
3B
3C
3E
3F
00
03
39
3E
3F
3E
00
00
3F
3D
06
02
3F
3C
02
3E
00
3D
04
05
07
07
01
39
00
07
3A
3F
01
07
02
3D
00
3F
05
00
03
3C
3E
3D
05
3E
3E
3F
3F
3D
07
02
3E
38
3F
03
00
04
00
3F
04
3E
01
03
3E
3E
02
03
00
3A
3B
02
00
07
07
3C
04
01
00
07
01
01
3B
3E
00
3A
06
3F
3F
3E
01
04
06
08
04
08
39
04
04
06
04
04
00
3F
02
35
05
3F
07
39
3E
01
05
06
00
3B
39
39
00
01
02
3E
07
3F
02
02
3F
3E
03
3C
3E
3F
03
03
02
3B
3B
09
03
03
3A
00
00
38
01
3F
3D
07
3B
3C
03
3D
3F
02
3D
03
05
02
37
3C
3D
03
3B
04
3D
3A
00
39
07
02
3F
01
3E
04
00
03
3F
39
3B
3F
00
04
3F
03
00
06
01
01
3B
06
3B
02
01
08
08
02
02
07
3B
01
3A
03
00
02
02
3D
01
3E
3B
3A
00
01
3D
00
38
3D
3D
00
01
3C
04
3B
03
3F
38
3B
07
38
00
3E
00
01
3D
14
00
03
06
05
08
00
39
05
3C
06
00
01
3B
3D
03
06
04
3D
02
39
3F
3E
3A
06
04
03
3D
05
3F
3E
00
3F
3B
03
3D
02
02
00
3D
00
3D
01
02
3A
3E
01
3B
3C
3C
06
3C
38
02
3C
39
3C
0A
3F
3D
03
00
3D
01
3E
02
00
03
04
00
04
3E
01
02
04
38
3A
3D
3F
3A
02
05
3F
07
3C
09
06
05
01
3C
02
02
3E
38
00
3E
01
3E
3B
06
00
3E
39
3A
01
03
3E
3F
3A
04
07
01
3C
3F
01
03
3A
3A
00
3E
3F
01
3F
3D
3C
3C
00
04
06
06
01
03
3A
00
04
04
3E
04
3E
3C
3C
3C
04
05
38
3E
3B
01
3C
05
04
00
05
01
05
07
03
3E
04
07
01
00
3B
01
04
3D
07
02
3D
03
3A
3C
39
3C
03
03
07
05
03
04
04
08
3E
00
02
3C
3B
01
3F
3A
39
3F
3E
3E
02
39
00
04
01
3C
03
02
00
3C
3B
00
06
02
3B
3E
3F
05
3D
0D
3F
02
3D
3B
03
00
02
03
00
05
3D
3A
3F
05
00
05
38
04
3D
01
01
3B
03
3A
05
3F
00
3E
3A
3D
04
08
3D
3E
3F
3B
39
03
3F
3C
3D
02
03
3C
03
3E
02
01
3F
02
3B
3E
3B
3E
00
3E
39
3C
02
02
38
04
3A
3C
02
01
00
3C
07
3E
3E
3E
04
38
3C
04
04
3F
05
3B
06
06
00
05
06
03
04
05
3F
3F
3F
03
00
3E
38
3F
01
02
03
3C
07
03
00
39
05
03
3C
3C
3B
03
3E
38
3D
3A
03
3E
04
05
3B
04
03
3A
07
01
00
3B
3D
02
02
3C
03
04
00
04
01
04
3E
06
02
01
3C
02
3F
3B
3C
39
01
03
07
04
03
3A
07
3D
04
02
05
09
3C
3A
00
3B
3C
01
00
3F
3F
3F
3D
05
03
07
02
3F
3B
06
03
3C
3D
03
07
02
00
04
3A
3D
3F
01
3F
39
05
01
01
00
02
02
3E
3E
02
3E
3C
3E
03
3A
05
02
3D
01
05
3C
3F
3F
3D
3E
3D
04
3E
06
3B
02
02
03
3E
04
04
3A
3F
05
3C
03
3F
08
3B
3F
03
07
08
04
01
3F
3B
3F
3F
07
02
3B
01
01
05
39
01
02
3B
3D
02
3C
3D
3F
00
3E
38
03
3F
02
01
3F
03
03
06
3A
3F
05
01
3E
3F
3D
01
3A
01
3E
3F
3F
3F
3C
3E
3C
3C
3E
3D
3E
3D
05
3B
3D
03
04
00
3C
3F
3F
01
08
3F
08
04
3B
3E
3E
3E
3D
01
3A
03
02
3F
02
05
3F
06
3F
3E
3C
02
02
07
03
3D
3E
01
00
00
3E
3C
08
00
3D
3B
3F
39
04
01
00
3F
03
07
01
00
02
3E
3E
04
01
04
3D
3F
04
01
01
03
3F
05
03
03
3D
3F
00
01
3F
00
3D
01
3F
3F
06
02
00
05
00
3A
02
3C
06
03
02
07
04
04
03
3C
04
06
07
01
3E
01
3F
05
3C
04
03
3D
07
3D
05
05
3D
01
3B
00
04
00
3F
04
05
03
05
01
03
01
3B
06
05
3F
3B
06
3E
3E
07
00
00
09
08
3B
3F
00
02
04
02
04
3A
00
3E
04
3C
02
3E
03
01
02
01
04
04
3A
02
3E
39
38
04
3C
04
39
01
07
03
3D
02
3E
3A
01
04
07
3D
01
01
00
01
3B
00
39
01
01
02
00
02
3E
03
01
04
00
03
02
3C
02
08
3D
3A
02
00
06
01
3F
3E
04
04
04
03
02
04
3D
03
3F
02
04
3D
00
02
3A
00
3A
3D
00
07
3D
3D
01
00
37
3F
03
3D
05
01
3E
01
3E
02
3C
3F
00
07
3B
3E
01
00
05
00
3A
03
3E
3D
3C
3F
05
3E
3A
01
3E
00
3D
39
39
01
3A
3C
02
3F
04
3D
3B
08
3A
04
05
06
07
3E
03
01
02
00
00
00
01
07
00
3B
05
07
3E
00
3E
3A
00
01
03
3E
3F
39
01
04
3A
3E
3C
39
39
3F
06
3D
02
04
02
01
08
01
03
04
3F
05
00
05
3F
3A
05
3C
01
3C
3E
3C
3D
02
3C
04
3D
00
06
3B
3D
01
06
3F
05
00
01
3D
00
01
08
07
01
3C
37
03
39
01
05
06
05
02
08
06
03
3D
06
01
02
04
04
01
03
3D
39
03
3A
00
08
06
37
3C
3F
06
3C
03
02
03
3D
03
00
3F
3E
39
02
04
06
03
04
3D
02
3C
07
3A
03
06
3C
05
00
3B
07
02
3B
3E
3B
3F
07
03
01
3C
3F
06
01
00
3B
00
3E
3F
3E
3E
02
3F
3B
02
38
3A
02
3B
3D
36
3F
03
3E
00
01
01
3F
04
06
3F
3A
06
3D
07
05
3A
3A
01
06
03
06
05
03
00
3E
00
01
3E
00
3F
06
39
3B
3A
00
02
04
00
00
04
01
3E
03
03
03
3F
04
3A
03
02
01
03
3F
3A
3C
00
3D
3E
3C
09
3F
09
00
02
3E
39
3A
3C
06
02
02
3D
00
3D
3A
3E
02
3B
00
3C
02
3B
3A
3F
3C
06
08
3E
01
3E
01
02
02
39
3D
38
02
00
3B
00
02
03
3E
06
3C
3E
3C
02
38
3C
04
02
00
01
3D
00
3E
00
01
00
3E
05
3A
3F
39
00
05
03
01
3E
3D
39
3E
38
3E
38
3F
02
3E
02
3F
02
3C
38
39
3F
04
01
02
3C
3F
08
00
02
3D
06
04
05
3C
05
02
3F
07
00
01
00
3F
03
3B
39
07
05
06
05
02
02
3A
02
3D
3F
3E
3D
3F
09
3A
00
3C
07
3D
3B
3E
07
3E
3D
3C
05
3F
01
01
3B
02
3E
03
01
06
39
01
01
3F
3D
04
04
05
04
00
00
3E
01
0B
3D
04
06
02
02
3C
3F
05
3D
04
07
04
3E
3F
3C
3C
3B
00
00
00
05
3F
00
00
01
00
38
02
08
3E
07
01
3A
3B
3A
04
02
03
00
04
3E
03
00
00
3D
3C
01
3F
06
02
3D
00
09
01
04
03
38
3C
01
00
38
3D
03
03
01
3D
01
03
04
07
01
3E
3E
05
07
3D
01
02
01
02
04
00
00
03
3F
04
06
01
3E
00
3E
3C
06
05
04
02
07
02
38
3F
3A
01
3D
02
00
3B
00
3F
00
06
04
01
01
00
00
3F
3E
3F
3D
3C
3D
3B
3E
01
00
08
3E
08
00
07
3F
3C
00
02
00
3D
06
3E
00
00
3E
3E
3E
3E
3D
06
05
3E
00
00
03
3E
3E
03
05
00
07
04
3F
3B
3D
3D
3D
38
39
01
06
3F
3B
3A
03
3C
05
00
02
03
3B
3F
00
3C
3F
3E
02
3D
03
3D
3C
38
3E
3A
04
04
03
07
3A
02
03
3F
02
3C
05
00
3F
04
3E
03
01
06
3A
39
3B
39
05
3A
03
02
06
3B
3D
02
01
00
37
02
02
06
03
02
3F
3D
08
07
3A
3D
3D
02
09
00
00
00
3F
00
3F
3C
03
3E
01
02
00
04
38
04
3E
38
03
05
05
3E
00
03
02
07
3D
34
04
01
03
05
3E
08
3C
11
01
01
3C
06
06
3F
07
00
00
03
00
39
03
3A
02
08
00
03
02
3D
07
04
3E
01
03
3C
00
3A
03
3E
06
3E
39
03
3A
3D
3E
00
3D
37
39
3F
07
04
3B
00
3F
02
3F
05
3F
00
01
3B
03
03
08
04
39
02
04
03
04
3E
39
07
02
00
0E
03
03
02
01
03
3C
01
03
00
06
3C
06
03
01
05
09
00
3E
3F
0A
03
06
04
3E
01
03
02
38
3F
3D
06
04
3C
01
00
07
3C
3A
3C
08
3A
08
03
01
3B
3F
06
05
02
01
05
02
04
3B
3A
00
39
04
3D
02
00
06
04
3E
3F
3F
3C
00
3E
05
3D
39
3F
02
0B
3C
04
3F
00
02
04
07
00
05
3F
3B
3D
3B
3C
3F
03
03
3D
3D
08
08
00
3A
04
09
00
02
3D
3F
02
05
01
07
07
3D
05
3D
3E
3C
01
04
3E
05
01
01
01
3A
07
00
00
3A
03
02
3F
03
01
3B
3D
02
3A
3D
01
01
00
3B
01
02
01
3E
04
3B
3D
03
00
09
01
3D
3F
01
05
39
38
05
3F
02
00
3B
04
3E
00
3D
3C
03
3C
3F
3E
3E
02
05
06
3E
3D
02
02
3D
3F
3B
39
00
3C
3E
03
3C
02
3C
02
01
05
00
38
01
03
00
08
02
3C
3F
3D
3A
02
37
05
00
06
02
05
00
3C
3D
01
00
01
01
02
06
3F
00
3C
06
01
3F
00
04
04
03
02
05
3F
01
07
3F
00
07
3F
01
39
3F
3F
01
07
3F
3E
00
03
3D
00
06
3E
3D
01
3C
05
05
03
3E
02
3D
06
3E
3C
03
3B
3D
00
3E
3F
3F
3E
3D
06
05
01
04
04
3E
01
00
02
3F
3D
01
3E
3C
3F
3D
3D
02
03
03
00
3F
3D
03
3F
06
02
02
07
04
3F
01
09
04
3C
3D
00
3E
3E
39
3A
3E
03
3E
02
3E
03
05
3E
3B
01
04
02
08
02
02
01
3F
02
00
02
03
01
00
04
3C
3E
3C
01
02
3A
3A
3D
08
02
01
3D
06
07
01
05
38
39
3F
00
00
02
01
08
06
3A
3A
00
37
3F
3A
06
3C
3D
00
06
02
04
01
3F
01
04
01
3D
01
3B
3A
3C
00
02
3A
03
01
05
3D
03
3C
3C
01
3F
07
00
3E
01
38
3F
01
3D
05
07
3E
3D
3D
3D
3E
04
00
00
3D
3B
02
04
06
3F
3F
39
01
39
3E
08
06
3D
3F
3F
00
01
01
3F
3B
3C
3E
3E
06
3F
05
3D
03
3E
01
00
3C
02
01
01
3A
39
00
04
3E
03
39
3F
02
3A
3F
3E
04
3D
08
3D
3F
38
05
3D
38
3A
03
3C
01
3F
08
3B
02
3B
07
3E
02
3F
3D
01
05
03
3D
3D
3D
38
3E
03
3A
3C
03
08
3D
06
39
02
00
01
02
3E
05
03
3D
3C
09
3D
3D
00
00
3E
3E
04
03
04
00
02
39
3F
3D
01
3B
03
3D
01
03
01
3F
3B
03
3D
3F
05
01
03
02
3C
00
01
3F
02
3B
3E
00
05
3E
0B
3F
3F
00
3F
05
08
00
3B
02
00
3C
02
3F
04
3D
05
04
3B
39
00
0E
04
3F
3A
04
03
3E
02
3D
3F
3B
3D
03
3E
02
06
3A
04
05
01
02
3F
3D
3F
3C
3A
01
07
3D
04
3F
3A
3F
3C
00
00
3A
00
3D
07
08
3C
3B
01
3B
05
01
3C
3F
00
3E
3E
3B
3C
01
00
04
3B
03
3E
3B
03
06
04
3D
3F
3B
01
01
3E
05
3A
04
3F
3C
3C
00
05
00
3E
03
00
04
3C
04
3F
00
02
3B
01
38
01
03
3E
05
00
03
06
02
01
3A
3C
02
01
00
02
3F
05
02
3A
02
3A
03
38
3C
05
02
01
04
3E
3D
3B
02
04
06
02
06
03
3B
02
3B
3E
3E
3D
04
06
3B
3E
39
3F
04
3D
3F
3A
04
3F
3D
06
3B
3C
3E
3C
3E
3D
3D
39
3B
05
04
38
03
00
04
3B
3E
05
00
3F
01
38
00
05
3E
03
02
04
3A
3D
39
01
00
00
05
05
3E
3A
07
02
3C
03
04
3A
05
02
00
02
3D
3E
3E
05
39
3F
3E
3A
03
02
3C
3C
02
02
02
39
3D
02
3E
39
04
3A
00
06
3E
3D
3C
03
39
04
3F
38
3E
03
03
01
3D
3E
04
3A
3D
3E
07
3E
3C
01
01
3D
3F
01
00
3E
05
02
05
02
3F
3F
05
00
3C
01
3E
3E
06
00
3C
08
3E
01
00
05
00
3F
3D
3D
03
3F
05
00
3F
06
04
3F
3D
3F
01
01
3C
3C
05
00
3B
05
00
00
3B
01
3D
03
07
3C
03
01
04
08
3B
3E
3A
02
03
3F
3C
05
3D
01
03
04
38
3D
08
02
04
05
04
00
01
01
3E
06
3C
3E
03
00
07
04
00
01
00
3F
3D
06
3D
00
3C
3E
3A
00
3D
3F
05
04
02
00
3B
05
02
03
3D
01
02
3E
38
04
06
01
3C
3F
04
08
3D
04
0B
3F
03
3D
07
02
3B
3A
00
00
3A
02
05
3D
3F
02
00
06
02
3C
07
02
3F
3F
38
01
3E
00
3E
04
3E
39
01
00
3F
3F
00
3A
3E
39
03
05
01
08
01
06
05
05
03
02
05
03
3B
3C
07
01
01
39
3F
02
02
04
04
38
09
39
39
03
3A
02
02
3F
01
3F
3E
04
3B
3C
3A
3E
3C
07
05
3D
01
37
3B
04
01
00
04
04
3D
02
07
01
3D
3A
04
3F
3D
01
3C
3C
3C
05
05
05
04
00
3D
3C
02
03
08
00
38
05
04
3D
03
03
3F
3D
3D
3E
3C
3C
3B
39
04
39
01
01
3F
05
3E
00
01
37
3E
01
00
05
07
05
07
3E
03
04
3B
04
06
02
02
01
08
3E
02
3F
03
3F
3C
3B
01
3A
01
3A
3B
00
01
02
3F
39
3F
00
3E
3E
01
00
00
02
3C
03
00
3C
3F
08
03
3C
02
03
3C
3E
02
02
04
3B
3E
04
05
03
3C
3C
3E
3F
00
02
05
3D
3C
3D
04
09
3F
00
03
00
3D
00
01
01
00
05
00
06
04
3F
00
01
3E
01
08
02
02
06
03
3F
08
05
01
02
04
00
05
3F
05
01
00
3B
03
3B
04
03
06
01
00
06
3D
3E
39
02
08
3C
01
06
3C
00
00
3E
04
03
3E
3E
3D
07
3F
3B
3D
3D
3F
00
39
3C
3F
02
06
07
3E
05
3B
3E
02
02
00
05
02
3D
3E
3C
08
3E
05
03
01
02
04
3D
38
3B
39
00
00
3F
3C
04
01
06
3A
3C
3C
3E
05
06
3E
04
00
3D
01
08
3A
3F
00
01
3F
05
04
01
3F
3E
04
06
3E
05
3A
3F
3B
3C
3D
06
04
3F
02
01
3A
3A
3D
00
3C
3A
06
00
3F
04
02
01
3B
01
3A
3C
3F
3D
38
03
39
3F
03
01
02
3E
3F
02
06
3E
00
02
05
02
3B
3D
3F
05
01
03
00
04
3C
3E
05
03
00
03
3F
08
05
3F
03
3C
06
06
00
3E
05
00
00
3F
02
3E
01
3B
04
3E
39
02
00
03
03
3F
3B
38
00
3C
00
03
00
03
04
3C
00
00
3D
3D
3B
02
3E
01
02
01
01
01
00
3B
08
3F
08
3E
3E
03
3E
03
3E
03
04
01
3F
3C
02
3B
00
02
3E
3D
05
3E
03
01
01
01
01
38
3A
00
3C
3D
04
3C
3E
38
04
01
3C
01
00
3F
04
3C
38
3B
03
02
3D
38
04
00
04
3E
02
3E
01
3B
3D
3C
3E
06
00
3F
00
3E
03
00
3E
00
02
07
04
38
03
3E
00
38
02
08
3F
00
00
3D
3F
01
04
3B
3E
02
3E
03
3B
3B
3E
3E
3E
3B
05
01
01
3B
01
04
3C
02
3B
07
3E
02
39
04
01
02
38
05
04
3E
3E
05
3C
3A
3E
3F
3A
00
3F
3D
03
39
3E
02
00
00
02
01
01
02
04
05
02
3E
05
3A
00
03
04
04
3A
04
00
06
01
00
3E
02
3E
06
3F
3F
3B
08
3C
03
03
39
3E
04
3C
01
3A
00
3D
00
04
3E
00
3F
00
00
00
3A
01
3C
05
3B
3E
3C
3F
02
3E
01
00
37
03
3F
3F
3D
04
06
3B
01
3F
3F
3D
02
05
07
3E
03
3F
05
3F
00
3E
09
04
00
3E
3F
03
3C
3C
00
03
3E
37
00
3D
02
02
04
3E
06
02
01
01
07
3F
3E
3C
04
3F
04
00
3A
02
02
37
01
3F
3A
00
02
02
01
3E
01
3A
03
03
3B
3E
0A
06
3F
00
3B
08
3B
07
05
07
3D
3D
03
01
3F
06
0A
01
3F
07
06
06
3A
3C
00
3C
01
39
02
03
02
04
01
3B
38
04
00
01
3A
04
02
3E
03
3B
3C
04
03
39
0C
3F
3C
38
03
06
01
3F
3B
3F
01
03
3D
3D
08
3C
02
00
03
06
3B
0B
06
3B
02
08
37
39
3B
3F
02
05
03
04
05
3F
03
0C
3C
01
3F
09
03
01
03
08
3D
04
3E
04
3E
3E
06
00
00
05
02
03
3F
3E
03
3B
06
05
3F
02
3E
00
02
00
3F
03
3C
00
3C
08
06
00
04
02
39
3E
01
3E
01
01
3F
01
3F
00
01
3F
3F
3E
00
3D
36
00
01
3B
04
00
04
3E
05
01
06
02
03
3E
3C
3E
00
3F
03
3E
01
00
05
3E
02
02
3B
05
3C
3B
3D
01
01
04
3E
00
01
01
3F
02
3F
00
00
01
01
04
3E
3B
3F
04
3D
3F
3A
3D
01
3C
00
01
02
3E
03
3D
3F
06
3F
00
06
3F
05
3D
3F
3A
3B
02
04
07
01
00
3E
3D
06
3F
00
3E
00
01
02
07
3E
3F
05
03
3B
01
09
3B
06
05
3E
0A
3F
02
00
3F
3E
3D
3F
39
3C
3D
36
00
3C
3D
00
09
3A
03
3F
00
02
3F
38
3C
3F
3D
3F
02
02
07
3C
03
3E
04
3E
05
04
3E
06
02
3E
03
03
01
37
3D
3C
06
09
08
04
00
3F
02
3F
03
05
08
3C
3D
3B
3E
3B
03
3F
06
03
3C
01
05
05
00
03
3F
3A
39
38
3D
00
08
3B
07
01
3D
3F
3F
02
3A
3F
3F
06
3C
07
3F
04
02
04
06
3E
04
3C
02
3F
3D
04
3E
01
01
3D
01
3A
01
00
05
3E
3C
02
00
00
3C
08
03
3A
02
00
03
00
3B
01
04
3C
03
39
3D
3A
3D
3B
3B
02
3D
3C
3F
39
04
00
38
02
00
3E
02
3A
3E
05
03
03
05
3A
3D
05
39
02
01
01
3C
3E
3E
01
3F
05
3E
3B
3C
07
3D
01
01
01
00
3F
3C
3F
3D
00
01
3D
3A
04
00
3F
02
05
38
01
02
04
03
3B
01
03
3A
3E
3B
3C
00
04
02
02
39
3E
07
04
3D
3C
00
02
01
3C
3F
3B
04
3F
3D
04
00
3D
06
3B
3F
03
3D
3D
00
3F
03
00
3F
00
07
3F
00
3A
3F
3C
03
3E
01
06
03
01
00
02
3B
05
3B
3E
05
3A
03
05
00
01
3F
3F
01
05
04
05
3B
3D
3A
03
3D
04
00
02
3D
04
3F
05
01
3D
02
3B
3F
39
3F
05
3F
04
3F
3C
02
3C
00
01
3C
3C
03
00
3B
01
39
38
01
03
3F
3D
00
05
3C
03
07
3A
04
00
3F
01
01
01
05
03
04
06
05
02
3B
3B
00
3F
02
3D
05
00
38
00
3B
00
3A
3C
3E
3C
02
3A
07
01
3D
02
3D
01
3F
3E
03
00
04
00
3F
3E
3F
3D
01
38
03
3F
01
02
39
3D
02
00
00
3A
02
3F
3E
3E
02
3A
38
00
3E
3C
06
06
07
01
02
05
05
01
3F
02
38
3F
08
00
3B
3F
3A
3D
3A
3E
3D
3B
3C
3B
01
00
3B
04
3A
3C
39
04
00
00
39
03
01
3B
08
3D
04
02
00
00
3F
05
03
3F
3E
08
3E
3C
04
3C
3F
04
3B
03
3B
3F
3E
3C
3C
3D
05
3F
02
39
01
02
3D
3C
03
3C
09
3D
3C
3A
39
02
03
00
02
3D
3D
3D
03
07
01
3E
04
05
3F
00
39
3D
3E
3E
06
02
3F
00
3B
3C
03
05
02
3D
02
3C
3B
05
01
06
3E
02
3E
3B
3C
3B
3E
01
39
3F
03
02
00
00
3A
3D
03
3E
3F
3B
3A
00
03
03
01
3F
3F
3A
02
3F
00
04
02
3D
00
39
3C
02
04
3B
08
07
07
3A
3F
00
03
00
00
00
3F
01
3F
3F
3B
08
3E
3F
06
3F
3C
03
00
05
3F
3B
3C
01
02
02
3E
