BA
39
16
2C
BF
B7
D7
C2
26
FE
10
34
17
24
CE
0B
39
CA
16
E2
18
00
1C
4C
25
31
C7
D7
3E
14
C3
42
7C
80
80
BF
1B
E0
D8
1F
C5
D3
C0
2F
F4
BB
11
0E
C9
1B
2B
E6
14
D3
EA
31
CF
09
E4
F6
3F
EC
F1
CD
2B
1F
08
D1
0D
BA
33
F8
