1F
03
00
1A
16
1B
01
18
07
04
04
1D
00
1A
01
15
1C
1D
15
1B
04
03
00
04
1A
03
0B
01
1A
02
16
02
1E
08
17
03
1C
06
0C
06
03
1B
0C
0C
03
1C
1B
1F
1C
0C
17
0C
00
1C
01
0A
0A
03
00
0C
0D
09
03
02
1F
01
03
04
1C
05
09
09
1D
1F
1C
1B
04
05
08
16
16
19
15
07
16
04
04
1B
16
0A
16
17
1C
17
1A
1C
06
18
09
16
1B
02
1F
18
05
1A
01
1A
15
04
08
09
1E
18
1B
02
1B
04
1C
19
06
06
09
1A
1B
18
07
1A
08
17
19
1A
08
1C
16
16
07
1C
1C
07
0B
1D
1E
15
19
1E
08
1D
04
1A
