78
09
00
79
7E
04
05
7B
0D
06
00
08
00
04
76
7D
78
79
7D
02
7C
0B
7A
7A
7F
00
7B
08
78
07
78
79
00
77
00
09
7D
00
0A
07
06
00
00
07
77
7D
02
72
72
79
06
76
75
78
74
03
11
06
72
13
7D
75
71
73
04
7F
0B
7C
70
6B
02
02
0B
74
01
07
0C
7C
03
08
0F
02
00
7D
0D
75
0D
0D
7A
79
68
07
06
77
02
0A
02
72
0C
68
00
7A
03
70
76
7F
04
08
7F
07
79
00
73
7F
0C
75
7F
03
72
08
7E
78
09
05
7A
7A
04
72
7D
77
7D
74
7D
7C
78
7F
00
07
76
7C
04
78
7C
01
07
01
78
7B
04
01
07
03
05
09
0A
77
73
78
76
7C
04
7E
7F
0E
79
7D
04
7C
05
02
7F
03
10
7D
09
06
79
73
7C
01
04
7E
7B
77
7A
05
7A
7B
78
7E
09
7B
06
05
07
02
01
78
06
73
73
01
7F
73
00
0A
00
0B
78
78
66
01
6A
48
67
76
7E
70
7A
7F
03
73
6B
7F
7E
79
79
7E
6F
70
75
7E
7B
7D
71
07
69
02
05
75
78
6A
7F
6A
0B
05
7D
1E
75
77
01
78
0A
66
0E
66
03
7A
6E
75
