01
03
7B
02
01
04
7A
7B
04
04
00
79
7C
06
01
02
04
7C
7B
7F
7E
00
03
06
7A
7A
02
03
7F
79
04
02
04
02
79
03
7F
7C
03
7F
00
7F
7C
7E
05
7E
7E
00
01
00
7D
7C
7C
7D
7E
00
7E
03
7D
7B
7B
01
06
00
7C
7A
7B
02
00
7A
7E
00
01
03
07
7E
7D
77
07
7E
03
78
03
76
7E
01
06
00
7C
7D
7A
79
04
09
04
06
7E
7B
7C
7A
7B
03
7D
01
04
02
03
72
05
7A
7E
07
79
70
75
7F
7F
01
01
78
01
07
07
71
7D
7F
7C
08
77
78
03
7F
7B
05
7F
00
78
72
76
03
7E
7A
00
7F
06
01
00
00
7C
02
7E
04
05
7D
7C
06
02
02
7A
7D
7D
7E
7E
0B
7B
7F
05
04
05
79
7F
03
01
7C
7D
7F
7F
01
7C
00
7E
05
03
00
7D
00
04
01
04
02
04
00
02
7E
00
02
7F
7F
7A
00
7F
04
05
72
03
01
7C
7E
7C
02
06
77
7B
7B
01
7A
7F
00
7C
07
7B
05
04
03
04
00
05
00
7C
03
03
7B
7D
7C
04
05
7F
7C
7C
06
01
01
7A
7C
03
7D
7E
7E
01
03
03
01
7D
7C
04
00
7B
01
00
7A
01
02
04
7F
7E
01
79
77
05
01
7B
7F
04
7D
02
7C
7E
7B
7E
7D
7C
00
05
7D
04
02
05
02
04
03
7A
7B
7F
02
79
03
7B
7D
02
7D
7A
7F
01
04
00
7B
77
06
7B
7E
7F
7B
03
03
00
79
06
01
05
7E
7D
01
03
00
05
7E
7B
7A
01
00
7C
02
03
02
7D
7C
02
06
09
7C
03
7B
05
01
7A
0A
04
71
7E
00
7C
03
07
05
7D
01
04
7E
7E
79
04
02
0B
05
7F
79
00
04
7C
07
02
09
03
04
7F
04
03
7F
07
04
7A
7B
02
7A
7E
7F
04
06
06
7C
78
02
05
01
07
06
7E
02
79
05
05
01
7C
7E
7C
02
7E
7F
02
7D
75
7E
7C
00
7D
7A
03
77
7B
09
05
06
7E
7F
01
79
78
7F
06
03
03
7C
7A
07
7D
75
02
05
08
04
00
00
01
7D
03
00
05
7F
7C
05
07
00
03
7B
7D
7D
7F
7B
03
70
00
01
7E
05
06
00
7D
59
7D
00
00
05
01
04
7D
77
7B
7A
7C
05
00
7D
02
5E
03
7C
7F
01
7B
7B
01
7D
00
02
02
7A
7D
7C
04
6C
01
03
7C
7C
7E
7A
79
08
7C
7E
7D
04
02
78
7F
05
00
7E
05
7C
7E
04
79
02
05
07
7A
01
79
02
00
03
06
01
05
7C
7B
7D
05
7A
04
01
7C
01
00
04
04
7A
06
02
00
05
05
02
03
00
03
05
7E
02
7D
00
05
00
06
7D
7A
04
05
0A
0B
7D
01
7F
04
7A
02
01
7F
01
03
7A
7E
79
03
02
00
7C
7F
03
02
03
7A
7D
7E
7C
7D
7F
7D
7D
00
7E
01
7B
00
06
00
05
03
7C
00
01
06
7F
06
03
7E
01
7F
7E
03
7F
7A
7D
04
05
7D
7E
04
7D
7C
7F
04
02
7A
7E
05
7C
7A
05
02
7F
05
7B
03
7D
06
7F
04
01
02
01
7A
06
01
00
7D
01
7F
78
7B
00
03
05
7E
01
7C
00
7E
7B
00
01
03
7E
01
72
00
02
7E
7F
7F
7F
7B
7A
7D
00
02
7E
03
00
7E
78
7B
7B
7C
7B
7D
04
07
74
7A
02
00
7F
01
00
06
7C
7E
7D
01
02
05
00
01
7D
01
06
7C
06
01
02
01
03
7C
03
7C
04
7C
79
7F
7F
00
06
7D
03
02
7E
00
7F
05
01
7F
04
01
04
03
0E
03
03
03
00
7E
7E
05
7F
06
00
7A
7D
05
04
7C
0D
06
00
7F
02
7D
7F
09
0C
7A
7E
7D
05
05
04
01
06
02
03
7F
06
7A
7F
06
0A
7E
06
7E
00
01
7C
03
03
7D
7C
05
06
02
7A
02
7C
7D
7F
01
00
04
00
04
00
01
05
7F
7E
7B
7A
7E
7B
7F
7C
05
7D
7A
01
03
79
7C
04
7C
01
7F
7F
7B
02
7E
03
7D
7A
7E
7E
03
05
02
7C
7E
7F
03
7D
7A
7C
06
00
7E
05
02
7E
7F
7F
04
04
7A
7F
01
6E
67
04
76
05
01
0B
0A
72
5B
0B
08
07
73
76
04
7B
62
04
76
02
72
7D
0B
6F
7E
7F
77
7C
00
09
06
6D
79
7F
7E
01
7D
7E
79
73
71
7F
7E
08
05
04
7A
09
7B
75
01
05
03
76
76
01
0C
7B
00
0A
78
77
08
7F
03
7C
7B
7E
7D
79
03
02
00
71
03
06
79
7E
7A
01
03
7D
7D
01
7C
01
7B
02
04
79
7B
05
7D
05
03
7F
7E
75
05
00
7D
7E
7A
01
02
6E
7C
7F
79
7A
06
7E
03
71
05
04
02
7C
7F
03
7E
75
7C
06
79
00
02
03
05
77
03
01
7A
03
01
7F
06
76
04
01
7C
7D
7E
03
03
7C
79
06
03
7E
7A
7C
76
04
05
01
7D
01
7E
6D
70
7D
06
08
07
01
06
07
06
04
7C
00
04
79
7A
76
7C
01
03
7B
7B
02
06
70
79
04
7B
06
7A
02
04
7E
0A
0C
7B
07
01
07
7E
79
00
0C
7C
7A
03
7C
78
7D
74
0D
07
7E
06
78
7C
7E
7B
7D
06
00
05
05
03
01
7A
7A
02
7B
7D
00
01
03
7B
7A
7E
06
7B
7B
06
00
02
7D
01
00
06
7D
02
7D
7C
7D
05
7D
03
7B
7F
01
7A
02
7D
7F
01
02
7D
7B
7F
7E
04
7D
06
05
00
7B
04
06
00
00
7E
04
04
7C
00
7E
7A
7E
7E
7B
