3F
02
35
04
3C
3C
04
0A
37
3B
03
06
3E
00
3D
04
05
04
02
01
3B
3F
04
00
03
02
3C
01
3F
3F
04
03
01
3B
3E
05
05
09
3F
02
36
3E
3E
3D
3B
02
04
39
01
3F
3C
02
3D
00
3F
03
3B
3C
05
34
3A
36
07
3C
06
01
3F
01
3F
3D
02
00
03
37
09
03
00
07
3F
3F
3E
3D
3B
01
05
03
3A
04
3C
3F
00
39
06
01
05
3F
01
04
3E
06
00
06
3C
39
05
04
01
01
01
02
3E
39
01
3B
02
3E
07
00
3B
3C
3F
38
06
02
05
3C
3C
01
06
06
04
3D
07
3A
3A
03
3A
3B
0A
06
36
09
3D
07
00
3B
03
3D
37
06
03
39
02
01
01
05
00
02
3D
38
3D
03
00
06
08
3B
04
3B
3C
05
0A
3A
03
06
02
07
00
3A
3C
06
3F
06
07
02
04
05
39
3A
03
38
09
01
05
3C
3A
3D
0A
04
3D
3E
03
07
3C
3F
03
3A
02
03
05
06
3E
3C
01
3B
01
07
00
3C
00
05
02
03
3D
00
00
39
02
3A
04
38
3E
3F
3E
00
3A
3A
00
02
37
3F
03
02
08
16
04
0F
00
3F
02
01
36
01
05
04
09
34
39
3E
39
3F
00
07
09
00
07
38
3D
3B
3A
3A
03
01
04
13
07
06
04
00
06
04
04
07
00
0B
07
05
06
01
03
06
00
02
39
04
06
37
3F
07
3E
01
3F
3A
39
3F
3C
03
3D
3C
03
02
00
3C
3D
3D
03
3E
3C
05
3A
3F
00
38
00
3E
3E
3D
01
3E
02
01
05
05
04
09
3F
06
06
03
3A
3B
09
3A
00
3F
3C
3D
3A
03
00
3F
3E
07
02
04
3A
07
03
00
08
3B
01
3A
02
3E
04
05
00
07
37
3F
09
01
02
00
3E
3F
04
3B
00
01
36
3D
3D
04
05
3E
02
3B
01
3D
01
00
00
3B
0A
3F
3D
3C
08
3A
00
3F
00
04
01
02
3B
3E
02
3C
3F
3F
02
06
06
04
3B
07
00
36
02
06
00
3A
3C
08
3E
3E
02
3E
03
3F
00
3C
03
09
04
3F
03
08
04
16
3E
02
3D
32
02
3D
06
3C
3A
1C
04
08
3F
3D
0B
02
37
36
03
3E
08
3F
3B
01
02
3E
38
0A
39
02
3B
08
01
05
3D
38
00
3A
08
3B
06
3B
39
01
33
04
05
3D
3E
02
01
3E
05
06
3E
39
3F
3B
02
01
3A
39
06
3F
06
01
04
04
3E
37
3E
38
3E
3E
3F
3F
03
3F
3C
3F
3B
3C
02
3D
05
01
04
3F
3E
3D
08
02
01
05
01
0B
03
0D
08
3C
07
01
01
03
3F
07
01
02
3F
02
01
3E
06
36
05
05
3B
3E
0D
00
3E
38
03
3E
00
3F
02
04
04
39
3A
3F
3B
00
04
38
37
35
38
3D
07
3E
3E
03
09
37
3D
04
04
3D
05
00
00
3A
3F
3D
02
3E
01
3F
05
06
00
02
03
02
3D
03
01
3F
01
06
0A
08
3C
03
3E
03
00
3D
3F
09
3F
05
39
3A
00
3F
39
00
3C
06
05
07
04
02
3C
03
39
3E
01
08
3F
3D
09
05
00
39
00
3A
07
36
07
3F
06
3E
3D
08
38
3E
3C
38
3F
0B
02
39
08
3B
3F
02
06
3F
3F
3C
03
3C
3B
3F
09
3D
3D
3D
05
3A
3F
3D
04
3C
03
3D
04
04
00
3C
08
04
3B
02
04
3A
07
3C
01
04
04
3A
07
3E
3B
37
3A
39
00
00
01
3F
3F
3D
04
3C
07
05
08
0A
39
00
01
03
00
03
00
3F
02
01
05
02
3A
3C
04
05
37
01
00
0C
39
0A
05
3D
01
3E
3B
03
05
3C
07
3A
02
3A
06
3E
3B
3E
08
04
3D
05
0A
3C
3B
05
01
03
01
3B
3D
01
03
3C
38
07
3A
38
3B
00
3F
3C
06
01
3C
05
04
3E
03
02
02
3E
3D
3D
3F
3C
3E
3F
01
04
3E
35
03
03
06
3E
06
04
01
08
3D
3B
3C
06
07
3A
02
01
3E
04
03
00
3F
01
00
3D
01
05
09
3D
3E
3D
3C
02
00
3F
05
00
3E
01
01
38
03
05
00
00
00
3E
03
3B
03
04
05
04
04
35
3D
01
02
04
3D
3F
02
0A
3F
05
04
00
05
3B
3C
39
3B
07
3F
3E
3A
3D
04
3C
03
03
03
03
04
3D
04
3B
07
3C
3D
3A
02
09
3C
05
02
3D
03
00
3F
3F
02
03
04
03
07
09
03
3E
07
38
3F
05
36
3B
00
05
38
36
00
37
3C
3C
06
3C
3D
3E
04
04
05
3F
3B
3D
08
3F
3B
0B
3E
3F
01
0A
06
3D
00
0C
08
04
3D
38
03
3A
0A
02
3F
3B
07
3E
3C
00
05
3C
39
3E
09
3C
3E
3E
07
08
03
01
04
03
3F
07
00
05
07
0A
01
04
3E
39
3E
03
04
3A
01
3F
3A
06
39
3B
39
03
3B
09
02
3D
02
0A
00
3E
03
03
00
3F
08
3C
03
3A
3D
37
3D
05
06
05
06
03
09
37
3B
36
3C
3C
3D
04
04
05
3D
03
08
3E
02
04
3E
00
3A
0A
03
03
04
3B
06
3B
3D
03
37
02
3E
08
09
39
02
0B
09
3D
3C
3F
3E
3F
02
09
05
3B
3D
3B
01
07
3C
39
01
07
04
00
3E
3B
3C
3B
3D
3F
03
01
3E
04
3C
3F
01
00
05
39
3D
06
3C
06
3F
07
3F
05
04
00
3D
37
3F
00
3F
03
3B
04
3D
00
39
3F
3C
3F
04
02
39
05
07
09
3F
03
07
08
3E
3E
00
3B
38
04
3D
07
3F
02
05
03
38
01
02
05
03
3D
3A
07
3C
3F
04
3F
03
3E
0A
04
3E
39
04
02
01
07
03
02
06
3A
03
36
01
03
3A
39
3A
3F
3F
36
3B
04
3A
01
3C
02
3F
01
08
04
3B
00
00
05
07
00
05
06
3D
02
02
3F
00
0A
02
3A
3F
3D
3C
3E
01
3C
08
3E
02
3B
3B
02
3F
3D
05
01
3F
3D
04
3D
39
00
3E
3D
3D
3F
03
00
00
3E
3D
07
3D
01
03
38
08
3E
01
3B
06
39
03
01
06
00
38
39
00
03
00
01
03
04
06
00
04
3B
36
3D
04
03
37
00
3A
02
00
3C
07
0A
3D
04
01
06
04
3A
3A
3D
04
3D
04
01
01
39
01
04
38
07
07
37
3F
08
05
09
36
08
3C
01
00
01
3E
3E
06
04
07
04
3F
01
38
03
0B
00
07
39
09
06
01
3A
00
09
3F
3F
3D
03
01
3F
3F
00
01
06
38
3A
04
3A
3F
02
04
09
3C
3F
3D
3F
3E
39
3F
06
3A
03
00
06
01
06
00
3E
3C
01
04
08
3F
01
07
3A
3E
3B
02
00
03
05
02
02
08
00
05
08
01
04
09
08
3C
3F
04
3F
07
3E
07
02
3F
3F
3E
08
39
3E
06
3E
04
08
3C
05
03
37
04
01
3F
09
3E
3C
3A
3B
3B
07
08
01
02
02
04
05
05
3A
3F
00
00
03
04
3E
3F
39
36
07
3F
08
06
01
3D
06
3A
3D
02
01
3F
3F
09
3F
07
06
01
01
04
06
01
3A
3B
00
03
01
3B
3B
39
04
00
39
02
38
06
04
3C
04
36
38
02
37
01
00
03
04
07
01
3E
01
38
36
09
02
02
03
04
00
3A
02
03
3E
37
39
05
01
02
3E
00
01
3E
38
39
02
02
3E
3F
3E
08
00
04
3D
36
3E
38
05
37
3F
09
01
01
05
04
04
3E
3D
08
39
08
3B
3E
3E
04
00
04
3F
05
3E
00
3D
3B
02
06
3E
3B
03
01
3F
3E
07
09
06
3E
3C
04
37
01
00
36
3E
3E
39
06
00
00
3C
03
3E
3C
3C
38
3F
01
02
03
3F
0A
3F
09
3C
3A
00
3D
05
3F
3F
07
05
0A
3E
01
08
03
00
06
00
05
3C
0A
03
3A
39
3A
3A
36
3F
05
3D
05
3E
05
08
3D
31
06
02
3D
3E
3D
08
3E
37
07
3D
00
00
00
09
02
01
3D
00
01
3D
0A
3A
3B
07
3C
03
3D
07
01
02
00
05
08
3C
3D
38
3D
05
02
0D
3D
01
3F
04
02
04
3A
3B
02
08
3A
3A
00
3B
3A
01
3D
3E
02
3A
01
08
37
3D
02
37
3D
3E
01
3E
3F
3E
3A
09
3A
01
3E
01
02
04
00
02
3F
3E
3A
05
3D
3D
3E
00
3B
01
00
3E
03
02
3C
3D
3C
03
3F
07
3D
3A
01
3F
01
37
3A
3F
07
3F
35
01
05
38
03
04
3E
39
03
00
03
02
0A
0C
04
00
00
08
39
02
03
05
00
3B
00
3E
02
3C
05
3E
02
3E
02
37
01
00
00
01
05
09
3C
3B
04
3E
06
3F
02
39
3E
37
09
04
07
02
05
01
02
3C
3A
03
00
39
04
3F
03
04
09
09
38
3E
3E
3B
03
00
05
00
04
00
08
3B
04
3F
3A
3D
00
3A
3F
3B
01
08
37
03
02
3B
3B
3C
04
06
3E
3A
3E
3E
07
3A
05
00
3F
37
03
03
0A
03
04
07
00
3F
3E
3B
3B
04
3D
39
05
07
3E
3C
01
3F
3A
02
02
3B
01
03
00
06
09
02
3E
3C
36
05
02
3E
38
05
07
03
08
00
3B
08
39
3B
3F
3F
03
3E
3B
0A
03
3B
03
01
38
03
07
3C
38
39
07
3A
02
3E
09
3C
03
00
08
3E
3D
01
02
3C
00
04
04
08
02
3F
3F
10
07
0A
01
3D
02
3C
03
06
04
00
3F
38
3F
3A
00
3E
39
07
37
3F
02
3E
3E
05
02
04
01
3D
3B
3F
05
05
04
00
05
3E
3F
3F
3D
05
3F
06
3E
3F
3A
00
3F
02
3A
01
07
3C
3B
3F
3D
03
02
3D
39
3C
3A
09
3C
03
39
00
01
00
3D
07
05
3C
00
04
01
3A
00
03
08
3B
3D
00
07
3E
03
03
38
0E
3C
3E
08
36
03
03
37
3E
3C
31
05
08
3E
08
03
03
3A
00
01
3A
01
3C
00
04
05
01
04
3F
05
02
03
39
37
3C
05
39
01
37
38
3C
04
02
06
07
3A
00
03
05
37
09
02
08
3C
02
03
09
05
3A
3B
05
3E
07
02
3C
00
03
3D
00
3A
01
06
3C
39
08
00
3C
00
01
02
09
03
3F
03
3E
08
3C
06
3C
03
3F
3C
3B
3F
3F
01
00
02
05
03
3F
39
3D
02
06
07
01
01
02
05
02
39
3A
3F
3C
06
03
3A
3F
3E
3C
04
00
01
37
3B
04
02
3E
00
06
3D
02
3D
3D
3C
3F
3A
3E
3D
03
02
06
01
02
3F
3E
3D
00
07
00
03
02
01
3E
3B
3E
3C
06
39
3F
01
08
01
02
00
09
01
37
01
3E
3C
00
01
3A
02
3E
38
00
05
3E
03
3C
38
01
3D
3C
02
01
39
04
3E
03
02
09
3B
03
3F
3E
3E
3E
02
38
01
00
07
08
3B
3B
3C
05
02
3E
3F
01
02
3E
04
04
01
02
00
03
3E
3B
3C
3E
02
08
07
01
02
05
3A
3B
3F
07
3E
36
38
3A
03
38
3D
01
3D
00
00
05
03
38
3D
3C
3E
05
3F
04
3E
02
01
02
3F
3D
3E
08
03
01
02
3F
04
3C
00
02
3C
02
00
38
39
06
00
3A
3F
04
3F
37
3A
07
3D
01
01
02
00
01
37
06
3E
00
3B
38
01
00
05
3A
39
02
01
3D
00
05
09
3E
3D
3D
38
3D
04
06
3F
01
37
39
02
3F
06
39
08
02
06
03
3F
07
3B
05
01
3E
3D
3E
3F
3E
06
3D
3E
3F
3F
3E
03
3D
3A
37
06
01
3E
00
03
09
00
37
02
3A
00
02
3F
07
3F
3A
3C
06
04
00
3C
3B
3B
08
3C
3D
03
39
3E
01
07
3B
3B
0C
04
3D
04
02
3E
07
05
01
3D
01
3E
04
0B
02
00
3D
3E
3E
3F
09
09
02
00
3E
07
01
3F
03
3D
01
3A
05
3B
08
04
04
02
3E
05
01
00
07
3E
02
04
08
03
39
32
01
02
05
07
01
39
03
01
3C
3E
3C
04
09
04
01
3F
3F
3D
3B
01
39
3A
01
3F
01
08
38
3D
02
04
3B
3F
07
02
3C
00
3E
3E
3C
09
04
05
08
03
3A
3D
39
39
00
36
38
04
3F
39
3F
3B
3F
3D
05
08
04
07
04
39
04
36
3B
3C
36
3F
39
03
01
39
3F
3D
39
03
3E
3F
04
03
3A
07
3F
3E
39
3F
3F
3C
04
3F
3E
06
3E
00
3F
3D
3D
3D
3C
3B
39
0A
3F
02
3D
05
03
3F
00
3B
04
00
01
07
03
3E
3B
08
06
3E
00
01
3D
0A
06
03
3C
06
3D
02
3F
09
01
3D
00
3A
3F
37
3E
3F
3F
01
00
3E
03
3D
39
38
37
04
3C
07
09
00
0A
04
3B
02
3C
02
00
01
02
3C
39
00
36
3F
04
3B
09
05
04
00
3D
02
03
35
04
08
3A
04
05
01
00
3C
01
3A
09
3A
3F
3E
01
05
3E
09
3E
3C
3A
04
07
00
03
04
03
3C
3D
3B
3C
3E
3D
03
3D
3E
37
00
39
3B
37
02
07
3F
39
03
3C
3B
00
00
02
00
06
04
04
04
3F
02
03
05
3C
00
3D
3F
00
3D
3A
02
3D
07
39
3B
00
05
07
3A
3E
00
01
03
3F
02
01
37
04
01
3B
3D
3C
3C
01
01
3A
36
35
3E
3B
01
00
38
3D
02
38
3E
07
02
3B
3C
3B
03
37
3E
03
05
04
02
00
07
00
08
3F
04
3A
3F
02
04
00
3F
3C
01
03
04
03
3B
3A
3E
3E
3F
01
38
09
3B
04
08
01
3F
04
00
01
03
00
07
01
39
09
3C
3D
3E
3A
3E
02
3F
0B
37
07
3C
38
03
06
06
08
3B
17
00
3E
3E
07
39
04
3F
39
00
38
3F
3A
3A
3D
07
03
04
3B
07
05
04
03
04
0A
37
00
02
02
03
38
3E
01
3B
01
0A
3F
00
3F
3C
3D
3F
3E
08
3E
3D
38
39
01
08
01
02
3A
06
3D
01
00
04
3E
3D
04
3D
3C
02
39
03
03
38
3C
02
07
05
3A
3B
03
3F
3D
0A
3E
02
00
36
3C
03
03
04
3C
3C
3C
3D
06
3B
02
37
05
37
04
03
01
3D
3B
3E
3F
3E
3D
3B
05
05
3D
3E
3E
04
3D
3E
02
00
03
00
05
3D
3F
07
3C
3F
05
01
3C
3B
08
3A
3F
04
36
3D
3A
3A
02
3B
3F
3F
3E
03
37
06
3F
04
3D
08
05
0B
08
3C
3B
36
03
3B
3A
3C
02
3C
3C
03
3E
3B
02
38
09
03
3D
01
3D
3F
3B
06
3E
05
3F
38
05
3D
03
02
36
3D
03
3F
3D
07
38
01
3E
3B
38
3F
3C
08
39
08
02
01
05
3F
39
3B
38
3D
08
04
3F
3E
3B
3B
00
02
3E
05
35
37
01
01
01
3D
01
3F
3C
3D
3F
04
38
07
03
07
3B
05
01
00
03
3E
3C
05
03
3B
3A
3F
3A
3F
01
3C
02
09
01
09
0C
06
06
38
3E
06
3C
3E
3A
00
02
3E
01
3D
3D
01
36
08
3B
3A
3D
39
0A
00
0B
3B
08
3F
3D
06
3C
39
05
02
3F
3F
3D
00
3D
03
01
3F
03
04
00
38
09
03
02
05
39
3B
2C
01
39
08
03
0B
01
01
0A
02
03
02
02
33
07
3F
00
04
0C
09
06
3D
06
3E
04
04
04
05
01
3A
3C
3D
3B
39
3F
03
05
3C
03
3C
3F
03
37
39
00
3A
07
04
04
00
3C
07
05
37
00
3E
3D
3A
3A
06
05
00
09
3E
3F
06
3D
00
37
05
3C
3C
00
3F
3E
04
05
02
3E
3E
03
00
36
02
3B
3C
36
3C
3F
00
3D
3D
04
05
07
3F
06
02
3E
03
37
00
36
01
06
3E
3E
06
08
3E
00
05
02
3B
39
03
37
05
04
00
05
00
3E
00
3F
3D
3F
3F
08
3A
08
3A
3D
02
03
3C
01
01
05
03
3F
01
3D
3B
06
00
37
02
3D
3D
3D
3C
04
06
07
36
01
09
3E
39
03
39
08
38
05
00
3B
02
09
01
08
05
03
3F
3D
3A
3B
07
39
3F
3B
3B
3D
01
0B
3E
08
01
3E
39
3A
02
04
01
00
02
02
36
00
3E
37
06
05
05
07
3E
3D
3F
07
3D
38
00
00
05
3A
01
3F
03
3A
3C
04
06
01
03
05
35
00
07
3C
07
04
04
04
3B
3C
39
02
00
3D
3A
07
02
37
00
08
3C
0A
38
3A
3D
05
05
3B
3A
00
06
38
04
00
3D
3B
3F
05
0A
3D
3E
04
3F
06
3D
03
04
01
06
04
01
06
3A
06
3C
07
3F
3E
07
04
3C
3B
06
3D
3F
3F
3D
02
3F
3F
00
3C
01
01
05
02
3A
07
03
3F
04
3A
3D
3E
06
03
38
34
01
3C
02
02
07
3F
01
05
01
01
3A
3C
37
03
3C
03
03
01
07
39
02
00
0A
3E
00
3D
38
00
3C
3C
05
04
3D
05
07
3A
04
02
03
02
01
3A
03
04
05
01
00
38
3F
04
3D
07
07
3C
3C
3A
02
3E
07
03
00
3C
04
08
38
3E
02
3A
00
10
07
3B
03
3C
03
01
3A
03
01
09
3D
37
38
06
34
3F
03
3F
39
3D
08
05
03
3B
0A
3F
39
3B
01
3E
05
03
09
02
03
3B
3C
3B
3D
3B
02
04
06
02
3C
3B
37
07
3D
39
3D
3A
3C
04
05
3A
3C
37
00
00
01
01
0A
3C
00
3E
06
02
01
02
3F
01
06
3A
09
01
3E
3C
01
3C
3F
01
00
05
39
3F
39
00
08
02
01
02
3B
06
3F
3F
38
3F
3A
03
3F
02
00
03
05
03
3F
07
02
01
39
05
38
3E
01
01
3B
3B
03
00
04
00
3C
06
01
3B
01
04
3B
3A
00
01
03
3C
00
02
3C
3E
01
01
04
38
02
3C
00
04
03
39
01
04
39
01
04
04
04
00
05
3D
3F
04
01
3F
06
06
00
06
03
3D
06
00
39
3D
3E
37
03
00
36
37
3A
00
3F
01
3C
3F
02
3D
03
04
39
3C
09
37
00
01
3D
3D
00
04
39
07
36
04
3F
3C
00
3F
39
3E
04
02
01
0A
37
01
06
3C
01
0A
3F
3E
04
04
3F
02
05
3C
3C
3C
3B
3C
07
39
00
06
38
06
36
00
01
3E
02
37
3C
3B
05
05
01
0A
3D
08
3C
09
03
06
03
03
01
3B
00
39
3A
06
01
3F
3D
06
00
35
3F
02
05
01
3C
3C
0B
00
3C
00
3C
02
36
39
03
01
01
3B
09
3F
00
3F
00
3C
02
39
37
3A
01
03
05
04
05
07
07
0C
3E
08
02
37
35
3C
3F
3D
3B
06
01
3A
03
3B
00
37
03
10
00
3F
3C
3D
00
3F
00
07
3B
07
04
01
02
00
08
00
0B
3E
06
03
3B
01
01
06
3C
3F
3E
37
39
09
39
05
00
02
3F
3D
04
07
01
09
3C
3D
3F
3C
08
3E
3E
02
03
04
02
3C
3D
03
01
07
36
00
02
00
03
02
07
09
00
3F
3F
03
3E
3B
02
00
3F
03
01
03
00
3C
3D
08
02
06
3A
3C
3D
02
3F
3E
3D
09
00
37
09
02
3E
01
06
2A
03
07
38
3A
00
02
3E
03
02
3C
05
3F
01
04
03
06
04
04
01
04
03
39
01
36
3D
00
03
3B
00
3A
37
3F
38
03
3C
38
3B
03
02
06
3E
3A
08
02
03
3B
38
3F
3D
3E
3B
01
3C
01
01
39
02
3D
3F
07
02
01
04
00
03
08
39
3F
0B
05
04
3F
3E
03
05
38
3F
04
3A
0B
00
00
03
07
3F
3C
00
3F
01
05
02
3A
01
3B
3F
02
3F
3F
3E
3A
0A
00
03
3C
02
08
3E
02
05
02
05
3A
07
3C
08
3F
3D
3C
3F
3C
09
3D
3E
02
3B
38
37
3C
3B
3A
3E
3E
05
0A
00
3F
05
3C
00
00
3E
00
3F
07
3C
3B
00
3D
02
39
05
3D
00
05
04
01
04
01
07
3B
00
00
00
09
05
3C
39
01
3F
3B
39
02
01
02
3B
3B
01
3C
09
3B
04
02
01
3F
03
3B
3C
03
03
09
00
04
3D
00
01
3E
06
09
01
00
04
3C
01
39
00
03
04
00
3D
04
3C
01
38
3E
3C
3A
3D
00
04
38
3E
00
01
06
3C
3E
37
3A
3E
3C
03
3D
3A
05
3F
03
03
06
00
3E
38
39
06
36
3B
3E
00
03
37
03
3E
3E
3F
05
3D
0A
06
08
3E
07
02
06
3E
05
3F
03
00
39
3D
3C
3B
0A
08
01
3B
05
39
05
3F
05
09
02
3A
37
02
3C
01
07
04
00
3F
3A
03
3C
3E
38
06
3F
3F
3F
3A
3E
3F
3E
06
00
06
03
04
3B
06
06
09
02
08
01
3E
01
04
04
07
38
37
00
3A
3B
3B
04
02
07
04
07
08
00
00
07
03
3D
3E
3B
3A
3C
3D
3E
01
04
3B
3D
07
3C
02
07
39
3F
3D
04
06
04
00
01
3F
04
04
01
00
03
36
3E
00
3D
3B
3F
00
00
04
39
38
3B
3A
3E
3F
03
3F
3E
3C
02
3C
36
3C
0A
3E
05
06
3A
01
01
08
00
3B
3B
3B
3F
04
02
00
37
3F
3E
3F
07
06
04
01
00
01
01
08
3F
3F
3E
38
3B
08
03
3D
3F
02
08
05
3D
07
04
3C
01
09
05
04
38
05
00
3B
08
3E
00
00
3F
3E
3B
3E
3C
04
38
04
3F
06
07
3F
3D
00
03
01
3D
3D
3E
3A
08
3C
02
07
3B
03
05
05
3B
39
07
3E
09
3F
3B
3D
3C
3E
04
01
06
36
00
3A
08
00
3C
01
01
07
3E
04
3D
02
07
3C
01
3D
06
39
3B
03
07
3B
3F
3F
3A
02
00
01
01
3A
00
00
3F
3A
01
06
3E
03
39
06
3F
05
00
02
38
06
3F
3C
3F
03
3D
01
3D
09
39
3F
37
00
00
3E
04
02
02
37
07
05
3B
02
3A
3D
39
3B
01
3A
07
3C
07
04
3A
39
3D
06
01
3C
00
05
01
01
00
03
07
38
3C
3D
03
3F
3A
01
3D
03
08
3C
3E
00
39
03
3F
04
39
02
04
3E
04
05
09
08
3D
09
05
3F
00
3B
00
03
00
3F
02
3F
37
00
38
39
3C
07
39
06
03
01
3F
3E
00
02
09
38
02
3F
09
05
3D
3B
3B
3F
39
01
05
03
3E
01
00
00
01
39
3B
3C
3E
3D
3C
00
06
3E
06
04
01
07
03
37
01
03
02
02
38
3F
02
03
3D
00
3C
06
07
02
03
3C
01
02
3A
3E
09
3F
3F
3F
39
00
3F
3C
05
03
02
04
03
04
01
09
3F
3C
07
01
3B
02
3D
3A
3D
3A
3A
06
3E
36
05
3D
31
3D
05
06
06
07
0A
3C
3C
3F
3D
3B
07
3B
02
08
05
01
38
01
0A
04
07
3E
3E
3C
01
03
02
3C
3F
03
37
3B
02
38
33
3B
3C
01
3F
3A
00
3A
02
08
09
06
02
07
3B
09
3F
3E
05
07
01
3F
3D
05
09
02
3D
39
05
3B
04
06
16
3F
07
38
01
3B
38
3E
09
04
09
06
07
3E
00
3B
06
35
3A
03
0A
3E
01
02
01
05
02
3F
03
3C
06
3B
03
3E
04
05
3B
08
3A
00
3A
39
02
01
09
3C
02
39
06
3E
3F
3B
37
3F
3D
3F
3E
3D
03
3C
3F
03
03
3F
3C
3E
02
3C
05
03
07
07
00
03
04
37
00
05
02
3F
38
3D
38
3F
37
0A
37
3C
3E
3D
04
01
3A
03
3E
3E
00
00
3A
04
09
3E
3B
03
01
3B
3B
39
09
02
3C
3C
01
07
04
3F
00
3E
3D
00
02
04
3F
38
3F
02
38
03
08
00
07
3D
39
05
01
3A
02
38
3E
00
07
3B
00
3D
3A
03
06
3A
02
07
01
3E
01
01
38
03
01
05
02
05
02
06
3B
05
01
06
01
3C
3A
3C
3F
00
09
08
07
3C
00
0A
3A
39
03
38
08
39
03
07
04
06
3F
05
3E
3C
03
00
01
00
07
04
01
04
03
3B
3E
3B
37
06
06
3E
3F
3F
3F
3D
03
37
3B
3C
36
3E
06
06
37
3A
04
3B
03
01
35
3D
02
02
37
3F
3F
37
39
3A
04
04
3F
3E
3D
3A
03
01
3E
39
00
3A
3C
3D
3C
04
00
08
04
02
06
3C
3D
03
3E
00
00
08
04
07
04
07
05
01
38
02
3B
3E
03
3F
0C
01
03
03
06
3F
01
08
3F
3E
3F
03
00
3E
05
01
3C
39
3F
3E
3F
08
01
3D
3A
3A
00
3E
3A
3B
3E
04
03
05
3D
03
06
3F
02
03
03
02
07
3D
3E
02
3F
38
3C
3B
07
05
06
3F
00
3D
3D
04
3B
02
3D
05
03
3F
0A
3E
05
04
3E
08
02
3A
03
02
3F
01
3E
00
03
08
07
3D
37
00
00
3B
02
3F
32
38
02
36
01
3C
3B
01
3D
00
35
07
37
00
04
3C
3E
02
03
04
3F
09
3B
04
0A
03
3D
04
03
02
00
0A
04
3C
04
09
03
3E
03
3C
07
3D
0A
06
07
03
06
3F
02
